#include "weight.h"

#define WEIGHT_SIZE (11232)
PI_L1 uint8_t weight[WEIGHT_SIZE] = {
    0x9f, 0x3b, 0x8a, 0x72, 0xf7, 0x43, 0x00, 0x69, 0xa1, 0xc9, 
    0x09, 0x17, 0xa7, 0xab, 0xc5, 0xf7, 0xa7, 0xfa, 0x97, 0xa8, 
    0xa5, 0x92, 0x11, 0xdf, 0xa7, 0x92, 0x91, 0xff, 0x58, 0x6d, 
    0x6e, 0x00, 0x18, 0xb6, 0x1f, 0x16, 0x49, 0x91, 0x15, 0x60, 
    0x06, 0x38, 0x2d, 0x55, 0x2d, 0xa3, 0x6e, 0x7e, 0xd2, 0x59, 
    0x80, 0x79, 0x8f, 0x11, 0x4a, 0x7e, 0x8f, 0x11, 0x4a, 0x7e, 
    0x70, 0xee, 0xb5, 0x81, 0x68, 0x39, 0xc7, 0xb5, 0x59, 0x5c, 
    0xcd, 0x89, 0xfa, 0x75, 0x35, 0xdd, 0x0d, 0x89, 0x5c, 0xcd, 
    0x9a, 0xee, 0x05, 0xba, 0x3d, 0xbc, 0x05, 0xca, 0x1d, 0xbc, 
    0x05, 0xca, 0xe2, 0x43, 0xfa, 0x35, 0xee, 0xf7, 0xfa, 0x2d, 
    0x88, 0xfb, 0x79, 0x5b, 0x2a, 0xc9, 0x15, 0x24, 0xe4, 0xbe, 
    0x84, 0x12, 0x1d, 0x2d, 0x28, 0x42, 0xc6, 0xac, 0x00, 0xb2, 
    0xc6, 0xac, 0x00, 0x12, 0x39, 0x53, 0xff, 0xed, 0xe0, 0x32, 
    0xc6, 0x63, 0x0c, 0xea, 0x91, 0xf4, 0x00, 0x85, 0x05, 0x7f, 
    0x6c, 0x88, 0x55, 0x3e, 0xfd, 0x98, 0x18, 0x1d, 0x6d, 0x9e, 
    0x3b, 0x25, 0x6d, 0x9e, 0x3b, 0x25, 0x92, 0x61, 0xc4, 0xda, 
    0x1e, 0x15, 0x6a, 0x82, 0x3d, 0x68, 0xeb, 0x2f, 0x6e, 0x76, 
    0x1d, 0x53, 0xbb, 0x91, 0x91, 0xa7, 0x5c, 0x4a, 0xfa, 0x3a, 
    0xc9, 0x01, 0x2a, 0x1b, 0xc9, 0x01, 0x6a, 0x1b, 0x36, 0xfe, 
    0x95, 0xe4, 0x13, 0x69, 0xdd, 0xf5, 0xdc, 0xed, 0xb0, 0x39, 
    0xdc, 0xda, 0xf6, 0x76, 0xaf, 0x02, 0xaa, 0xc4, 0x42, 0x3a, 
    0xe9, 0x4f, 0x4a, 0x1b, 0xff, 0x4f, 0xca, 0x1a, 0xfb, 0x4f, 
    0x35, 0xe5, 0x04, 0xb0, 0x2f, 0x58, 0xab, 0xfa, 0x4c, 0x98, 
    0x7f, 0x23, 0x21, 0xa9, 0xfd, 0xce, 0x34, 0xf0, 0x3a, 0x67, 
    0x5b, 0x89, 0x6f, 0x3b, 0x01, 0x88, 0x26, 0x3b, 0x01, 0x88, 
    0x2e, 0xbb, 0xfe, 0x77, 0xd1, 0x44, 0x00, 0x00, 0x00, 0x00, 
    0x01, 0x00, 0x00, 0x00, 0x01, 0x00, 0x00, 0x00, 0x00, 0x00, 
    0x00, 0x00, 0x00, 0x00, 0x00, 0x00, 0x01, 0x00, 0x00, 0x00, 
    0x01, 0x00, 0x00, 0x00, 0x00, 0x00, 0x00, 0x00, 0xf7, 0xd1, 
    0x59, 0xb4, 0x26, 0x04, 0x6e, 0x6b, 0xb0, 0x5c, 0x36, 0xaf, 
    0xde, 0x83, 0x05, 0xfe, 0x12, 0xc3, 0xe5, 0x71, 0xf6, 0x8f, 
    0x0c, 0xcd, 0xf6, 0x8f, 0x24, 0xcd, 0x09, 0x70, 0xdb, 0x32, 
    0xb0, 0x48, 0x23, 0x45, 0xb7, 0x93, 0xae, 0xcc, 0x66, 0x56, 
    0x86, 0x3f, 0xa5, 0xe8, 0x76, 0xbf, 0xcf, 0x08, 0xa1, 0xed, 
    0xff, 0x08, 0x1d, 0xad, 0xff, 0x08, 0x15, 0xad, 0x00, 0xf7, 
    0xea, 0x52, 0x78, 0x44, 0x14, 0xba, 0x06, 0x42, 0x66, 0xcb, 
    0xc3, 0xe8, 0x9d, 0x75, 0x48, 0x9b, 0x03, 0x94, 0x7b, 0x80, 
    0xff, 0x8a, 0xfb, 0x11, 0xce, 0x96, 0x5b, 0x11, 0xce, 0x92, 
    0xa4, 0xee, 0x31, 0x6d, 0xe5, 0xe4, 0x8d, 0x49, 0x4d, 0xb4, 
    0x11, 0x98, 0x0c, 0x8e, 0x94, 0xbd, 0x3e, 0xfc, 0xbc, 0x24, 
    0xe0, 0x7c, 0xfa, 0x85, 0x95, 0xcc, 0x9d, 0x87, 0x94, 0x4c, 
    0x9d, 0x87, 0x6b, 0xb3, 0x62, 0x78, 0x01, 0x54, 0xa5, 0xaa, 
    0xd9, 0xdd, 0x03, 0xe6, 0xfc, 0x51, 0xce, 0x8e, 0xd4, 0x0c, 
    0x6a, 0xe7, 0x4c, 0xf4, 0xfd, 0x13, 0x58, 0x74, 0x87, 0xb3, 
    0x58, 0x74, 0x87, 0xbb, 0xa7, 0x8b, 0x78, 0x44, 0x8a, 0x0d, 
    0x4a, 0xe6, 0x03, 0x6e, 0x2c, 0xfe, 0xb5, 0x8b, 0x96, 0xbd, 
    0xc1, 0xdc, 0xf7, 0xb1, 0x51, 0xc7, 0x5f, 0x03, 0x51, 0xf7, 
    0x7b, 0x95, 0x51, 0xe7, 0x7b, 0x95, 0xae, 0x18, 0x84, 0x6a, 
    0x54, 0x66, 0x1d, 0xda, 0x22, 0x63, 0xdd, 0x34, 0x7a, 0x6a, 
    0x2e, 0x56, 0x99, 0x82, 0x9a, 0xc7, 0xf2, 0x7e, 0x90, 0x5e, 
    0x7a, 0x4e, 0xda, 0x76, 0xfa, 0x4e, 0xda, 0x76, 0x05, 0xb1, 
    0x25, 0x89, 0x0d, 0xef, 0x72, 0xd8, 0x3c, 0xe2, 0x2a, 0x60, 
    0x9d, 0xd5, 0xf0, 0x43, 0x2b, 0x50, 0x86, 0x30, 0xea, 0x59, 
    0x9d, 0x45, 0xe8, 0x18, 0xd9, 0xe7, 0xe8, 0x18, 0xd9, 0xe7, 
    0x17, 0xe7, 0x26, 0x18, 0x01, 0x00, 0x00, 0x00, 0x00, 0x00, 
    0x00, 0x00, 0x01, 0x00, 0x00, 0x00, 0x01, 0x00, 0x00, 0x00, 
    0x00, 0x00, 0x00, 0x00, 0x01, 0x00, 0x00, 0x00, 0x01, 0x00, 
    0x00, 0x00, 0x00, 0x00, 0x00, 0x00, 0x69, 0x4a, 0x80, 0xce, 
    0xd0, 0x4e, 0x9b, 0x8a, 0xba, 0xa5, 0xd9, 0x53, 0x75, 0x4c, 
    0x98, 0x23, 0xcc, 0xe4, 0xd7, 0x31, 0x3d, 0x00, 0xfd, 0x0b, 
    0x7d, 0x00, 0xdd, 0x0b, 0x82, 0xff, 0x22, 0xf4, 0x75, 0x49, 
    0x5f, 0xcc, 0xdb, 0xae, 0xde, 0xab, 0xdd, 0x30, 0x8b, 0x2c, 
    0xa6, 0xc4, 0xb5, 0xf1, 0x97, 0x01, 0x7a, 0x23, 0xa3, 0x95, 
    0x0e, 0x2d, 0xa3, 0x95, 0x2e, 0x2d, 0x5c, 0x6a, 0xd1, 0xd2, 
    0x65, 0xf0, 0x53, 0x99, 0xf0, 0x91, 0xef, 0x32, 0x96, 0xf7, 
    0x12, 0xc3, 0xe0, 0x17, 0x13, 0xac, 0x3c, 0x53, 0x2f, 0x1f, 
    0x54, 0x77, 0x33, 0xde, 0x14, 0x77, 0x33, 0x9e, 0xeb, 0x88, 
    0xcc, 0x61, 0x02, 0x02, 0xca, 0xed, 0xa2, 0xa4, 0xcf, 0x20, 
    0xf7, 0x92, 0xdb, 0x88, 0x11, 0x86, 0xee, 0xcf, 0x9a, 0xe0, 
    0xc9, 0x6f, 0x9b, 0x82, 0x88, 0xee, 0x9b, 0x82, 0xc8, 0xee, 
    0x64, 0x7d, 0x37, 0x11, 0x46, 0x01, 0xa3, 0xbc, 0x0e, 0xc4, 
    0x72, 0xd1, 0xc3, 0x85, 0xad, 0xcb, 0x11, 0x25, 0x56, 0x89, 
    0x4e, 0x27, 0xcd, 0xcd, 0xa6, 0xa7, 0x6c, 0x7d, 0x86, 0x27, 
    0xec, 0xfd, 0x79, 0xd8, 0x13, 0x02, 0xa0, 0x26, 0xfe, 0xe8, 
    0xfc, 0xf5, 0x64, 0x2d, 0x59, 0xa7, 0x92, 0xd4, 0x5a, 0xd3, 
    0xbe, 0x77, 0x08, 0x4e, 0x04, 0x86, 0x50, 0xce, 0x36, 0x84, 
    0x50, 0xce, 0x36, 0x84, 0xaf, 0x31, 0xc9, 0x7b, 0xbb, 0x25, 
    0x67, 0x70, 0x0c, 0x20, 0x92, 0x7f, 0x30, 0xc2, 0xd0, 0x88, 
    0x27, 0xaa, 0x32, 0xaf, 0x65, 0xd0, 0x19, 0x4f, 0x83, 0x98, 
    0x1e, 0xb3, 0x03, 0x98, 0x1e, 0xb3, 0xfc, 0x67, 0xe1, 0x4c, 
    0x73, 0x1e, 0x1f, 0xd8, 0xb7, 0x16, 0x15, 0x8b, 0x96, 0xc5, 
    0x15, 0xa3, 0xa5, 0x2b, 0xae, 0x7a, 0x30, 0xb5, 0x0f, 0x89, 
    0x2f, 0x92, 0x37, 0xa8, 0x27, 0x92, 0x17, 0xa8, 0xd8, 0x6d, 
    0xe8, 0x57, 0x00, 0x00, 0x00, 0x00, 0x01, 0x00, 0x00, 0x00, 
    0x01, 0x00, 0x00, 0x00, 0x00, 0x00, 0x00, 0x00, 0x00, 0x00, 
    0x00, 0x00, 0x00, 0x00, 0x00, 0x00, 0x00, 0x00, 0x00, 0x00, 
    0x01, 0x00, 0x00, 0x00, 0x4b, 0x8a, 0x05, 0xdc, 0x97, 0x61, 
    0xcf, 0x05, 0xb4, 0x98, 0x55, 0x98, 0xc4, 0xc5, 0xd8, 0xb1, 
    0x28, 0x49, 0x74, 0x9d, 0x89, 0x8b, 0x74, 0xbd, 0x89, 0xcb, 
    0x74, 0xbd, 0x76, 0x34, 0x8b, 0x42, 0xe3, 0x67, 0x8e, 0x28, 
    0x5e, 0x2e, 0x32, 0x1f, 0xdf, 0x9e, 0xa1, 0x1f, 0xcf, 0x0f, 
    0x1b, 0x16, 0xaa, 0x3e, 0x33, 0x31, 0x83, 0x37, 0xb1, 0x75, 
    0x83, 0x36, 0xb1, 0x75, 0x7c, 0xc9, 0x4e, 0x8a, 0xe4, 0x3f, 
    0xc5, 0x8b, 0xd2, 0x10, 0xf2, 0xc2, 0x99, 0x4f, 0x15, 0xe1, 
    0x72, 0xfc, 0x83, 0xf4, 0x79, 0x03, 0x05, 0x83, 0x79, 0x0f, 
    0xc7, 0x80, 0x79, 0x0f, 0xc7, 0x80, 0x86, 0xf0, 0x38, 0x7f, 
    0x91, 0x81, 0xee, 0x27, 0xf3, 0x13, 0xbd, 0x47, 0x55, 0xbf, 
    0xe1, 0x5e, 0xa4, 0x47, 0xed, 0xf3, 0x1b, 0x7b, 0x41, 0x5b, 
    0x26, 0x5b, 0xe5, 0x7b, 0x26, 0x5b, 0x65, 0x7b, 0xd9, 0xa4, 
    0x9a, 0x84, 0x3b, 0x70, 0x1e, 0x38, 0x31, 0x21, 0x9c, 0x48, 
    0xe7, 0x9c, 0x1b, 0x8d, 0x67, 0xc9, 0x9c, 0x89, 0x26, 0x1a, 
    0xc3, 0x2f, 0x27, 0xd8, 0xf3, 0xbb, 0x27, 0x98, 0xb3, 0xab, 
    0xd8, 0x67, 0x4c, 0x54, 0x48, 0xbd, 0xf9, 0x4f, 0x2c, 0x37, 
    0xc9, 0xdd, 0x4d, 0xef, 0x59, 0x09, 0x73, 0x9d, 0xb8, 0x36, 
    0x9b, 0x06, 0x11, 0xc0, 0xb3, 0x16, 0x5d, 0x09, 0xb3, 0x16, 
    0x59, 0x09, 0x4c, 0xe9, 0xa6, 0xf6, 0x25, 0xf5, 0xf8, 0x08, 
    0x9b, 0x75, 0x87, 0x32, 0x0a, 0xd0, 0x64, 0x04, 0xbb, 0x9d, 
    0x5c, 0x30, 0x75, 0xa3, 0x9e, 0x55, 0xb7, 0x94, 0xcd, 0x01, 
    0xb7, 0x97, 0xcd, 0x01, 0x48, 0x68, 0x32, 0xfe, 0x4f, 0x22, 
    0x33, 0xd1, 0x46, 0x2a, 0x5d, 0xc7, 0x69, 0x59, 0xf0, 0xc2, 
    0x1e, 0xc6, 0xb6, 0xca, 0xa0, 0x1f, 0xd6, 0x1f, 0x2b, 0xc6, 
    0xdc, 0xfb, 0x29, 0xc6, 0xd4, 0xfb, 0xd6, 0x39, 0x2b, 0x04, 
    0x01, 0x00, 0x00, 0x00, 0x01, 0x00, 0x00, 0x00, 0x01, 0x00, 
    0x00, 0x00, 0x01, 0x00, 0x00, 0x00, 0x00, 0x00, 0x00, 0x00, 
    0x01, 0x00, 0x00, 0x00, 0x01, 0x00, 0x00, 0x00, 0x00, 0x00, 
    0x00, 0x00, 0x78, 0xdb, 0x23, 0x5a, 0xc8, 0xac, 0xb1, 0x69, 
    0x2d, 0x8a, 0xc1, 0x6a, 0x7b, 0x9c, 0x59, 0x1c, 0xc6, 0x09, 
    0x3e, 0x88, 0xfe, 0x00, 0x5b, 0x68, 0xfe, 0x00, 0x5b, 0x68, 
    0x01, 0xff, 0xa4, 0x97, 0x62, 0xd2, 0xf9, 0xdf, 0x04, 0x54, 
    0x66, 0xcf, 0x69, 0x13, 0x3e, 0x79, 0xc4, 0xa3, 0x28, 0x1c, 
    0x81, 0xb4, 0x86, 0xa5, 0xc4, 0xa4, 0xa8, 0x11, 0xc4, 0xa4, 
    0xa0, 0x11, 0x3b, 0x5b, 0x5f, 0xee, 0xbe, 0x03, 0x85, 0x09, 
    0x4c, 0x70, 0xa5, 0x8a, 0x8a, 0xe9, 0x64, 0x34, 0x4d, 0x6b, 
    0x08, 0xe0, 0x6f, 0x60, 0xdc, 0x8c, 0x4f, 0x72, 0xc8, 0xa4, 
    0x4f, 0x70, 0xc8, 0xac, 0xb0, 0x8f, 0x37, 0x53, 0xd0, 0xd6, 
    0xbe, 0x82, 0x0b, 0x60, 0xbc, 0x0b, 0xea, 0xc9, 0x00, 0xb8, 
    0x4d, 0xf7, 0xc5, 0x2b, 0x43, 0xc2, 0xcd, 0x2c, 0x4b, 0x4a, 
    0x85, 0x16, 0x4b, 0xc8, 0xc5, 0x16, 0xb4, 0x37, 0x3a, 0xe9, 
    0x1f, 0x07, 0x35, 0x29, 0x54, 0x16, 0x57, 0xfc, 0xac, 0x94, 
    0x3b, 0xf2, 0xb7, 0x54, 0xa6, 0x89, 0xc4, 0xa5, 0x94, 0x63, 
    0x85, 0x87, 0xe3, 0xe7, 0x85, 0x87, 0xa2, 0xe3, 0x7a, 0x78, 
    0x5d, 0x1c, 0x11, 0xa7, 0xf8, 0x78, 0x8c, 0x11, 0xa1, 0xe8, 
    0x75, 0xbf, 0x6e, 0x3f, 0x05, 0xe7, 0x2d, 0xae, 0x9e, 0xed, 
    0x9a, 0x32, 0xd1, 0xef, 0xdb, 0x22, 0xd1, 0xef, 0x9b, 0x22, 
    0x2e, 0x10, 0x64, 0xdd, 0x00, 0xb6, 0x03, 0x5d, 0x88, 0x5b, 
    0x8f, 0xc7, 0x71, 0x40, 0x83, 0x28, 0x6f, 0x1d, 0xf3, 0xf3, 
    0x7c, 0x40, 0xd4, 0xe9, 0x4c, 0x51, 0xc8, 0xe3, 0x4c, 0x51, 
    0xc4, 0xe3, 0xb3, 0xae, 0x3b, 0x1c, 0xa8, 0x94, 0x08, 0x8f, 
    0x88, 0x6d, 0x96, 0x3d, 0xcd, 0x50, 0xa6, 0xf4, 0x58, 0x41, 
    0xd7, 0xa1, 0x58, 0x3a, 0x2d, 0x4e, 0x74, 0x78, 0x2f, 0xcc, 
    0x74, 0x78, 0x2f, 0xcc, 0x8b, 0x87, 0xd0, 0x33, 0x00, 0x00, 
    0x00, 0x00, 0x00, 0x00, 0x00, 0x00, 0x00, 0x00, 0x00, 0x00, 
    0x01, 0x00, 0x00, 0x00, 0x00, 0x00, 0x00, 0x00, 0x00, 0x00, 
    0x00, 0x00, 0x00, 0x00, 0x00, 0x00, 0x01, 0x00, 0x00, 0x00, 
    0xca, 0xd3, 0x0c, 0x83, 0x34, 0xb6, 0x8c, 0x65, 0xb7, 0x0f, 
    0x20, 0x7d, 0xf7, 0xaa, 0x57, 0xc3, 0x1b, 0x4a, 0xb4, 0xcf, 
    0x6b, 0x2a, 0xb4, 0x76, 0x7b, 0x2a, 0xb4, 0x76, 0x84, 0xd5, 
    0x4b, 0x89, 0x47, 0xe6, 0x1e, 0xd2, 0x99, 0x2c, 0x18, 0xf7, 
    0x80, 0x02, 0x61, 0x8a, 0x12, 0xfc, 0x89, 0xa3, 0x99, 0x93, 
    0x64, 0xec, 0x8d, 0xb2, 0xe1, 0xf7, 0x89, 0xb3, 0xe1, 0xf7, 
    0x76, 0x4c, 0x1e, 0x08, 0x1f, 0xff, 0x88, 0x4b, 0x72, 0x31, 
    0x0e, 0x14, 0xd1, 0x68, 0x91, 0x9d, 0x2d, 0x90, 0xa8, 0x8d, 
    0xc1, 0x85, 0xf8, 0x6e, 0x14, 0x80, 0xb2, 0x6d, 0x04, 0x80, 
    0xb8, 0x6d, 0xfb, 0x7f, 0x47, 0x92, 0x6c, 0x25, 0xfe, 0xbb, 
    0x22, 0x74, 0xac, 0x32, 0x08, 0xd0, 0xb9, 0x98, 0x8a, 0x2c, 
    0xc9, 0xba, 0xc4, 0x03, 0x70, 0x24, 0xcc, 0x07, 0xbd, 0x38, 
    0xcc, 0x07, 0xbc, 0x38, 0x33, 0xf8, 0x43, 0xc7, 0x03, 0x8f, 
    0x12, 0x85, 0x7e, 0xc2, 0xa2, 0x58, 0x2e, 0xdf, 0xee, 0xd9, 
    0x5a, 0x4e, 0x35, 0x0f, 0xdc, 0x19, 0x68, 0xc3, 0x56, 0x9a, 
    0x01, 0x5b, 0x5e, 0x1a, 0x41, 0x5b, 0xa1, 0xe5, 0xbe, 0xa4, 
    0x61, 0x55, 0xb5, 0x36, 0x7c, 0xaf, 0x79, 0x28, 0xee, 0x65, 
    0x4c, 0x17, 0x29, 0xa6, 0x9a, 0xe1, 0xdb, 0xd6, 0xfa, 0x83, 
    0x5f, 0xe8, 0xac, 0x29, 0x5d, 0xc6, 0xa8, 0x29, 0xa2, 0x39, 
    0x57, 0xd6, 0xf4, 0xa1, 0x69, 0x75, 0x8b, 0x66, 0x66, 0xbd, 
    0xe9, 0xd5, 0x3f, 0xda, 0x69, 0x1e, 0x0a, 0x95, 0x47, 0xe9, 
    0x00, 0x5b, 0xa3, 0xe0, 0x79, 0x0e, 0xa3, 0xe8, 0x58, 0x1a, 
    0x5c, 0x17, 0xa7, 0xe5, 0xc2, 0x17, 0xe0, 0xda, 0x9e, 0x76, 
    0x68, 0x43, 0x21, 0xd1, 0xff, 0x6c, 0x24, 0x85, 0x79, 0x50, 
    0x75, 0xf4, 0x02, 0xcb, 0xe5, 0xfc, 0x44, 0xe7, 0x65, 0xf4, 
    0x40, 0xee, 0x9a, 0x0b, 0xbf, 0x11, 0x01, 0x00, 0x00, 0x00, 
    0x01, 0x00, 0x00, 0x00, 0x01, 0x00, 0x00, 0x00, 0x00, 0x00, 
    0x00, 0x00, 0x00, 0x00, 0x00, 0x00, 0x00, 0x00, 0x00, 0x00, 
    0x00, 0x00, 0x00, 0x00, 0x01, 0x00, 0x00, 0x00, 0x07, 0x5f, 
    0x4b, 0x87, 0xac, 0x0d, 0xca, 0xed, 0x8e, 0x1c, 0x34, 0xe7, 
    0xaa, 0x88, 0xa2, 0x36, 0x5c, 0x47, 0xa8, 0xd2, 0x00, 0x04, 
    0xeb, 0x96, 0x04, 0x04, 0xea, 0x96, 0xfb, 0xfb, 0x15, 0x69, 
    0x0c, 0x78, 0xa1, 0x71, 0x29, 0x4b, 0x5e, 0x7f, 0x2a, 0xdd, 
    0x8e, 0x99, 0xc7, 0x3a, 0x91, 0x94, 0xee, 0x9b, 0x1d, 0x25, 
    0xbe, 0x11, 0x15, 0x00, 0xbe, 0x19, 0x1d, 0x00, 0x41, 0xe6, 
    0xe2, 0xff, 0x88, 0xdb, 0x6b, 0x02, 0x47, 0xe6, 0x35, 0xe8, 
    0xa7, 0x9b, 0x5b, 0x99, 0xc6, 0xb8, 0xd7, 0xa2, 0x08, 0x03, 
    0x76, 0x40, 0xe0, 0x97, 0xfb, 0xba, 0xc0, 0x97, 0xfb, 0xaa, 
    0x3f, 0x68, 0x04, 0x55, 0x4a, 0x42, 0x8e, 0xa3, 0x33, 0x66, 
    0xa3, 0x39, 0x4e, 0xc0, 0xf9, 0x7e, 0x05, 0x86, 0x00, 0x34, 
    0x8b, 0x7f, 0x5e, 0x3b, 0x80, 0x6f, 0x5c, 0xbb, 0x81, 0x6f, 
    0x5c, 0xbb, 0x7e, 0x90, 0xa3, 0x44, 0xea, 0xb7, 0xac, 0x08, 
    0x62, 0x5d, 0x4a, 0x25, 0x38, 0xd8, 0xef, 0xb8, 0x15, 0xa7, 
    0xe9, 0xda, 0x80, 0xcf, 0x71, 0x23, 0x16, 0xa6, 0x3b, 0x73, 
    0x14, 0xae, 0x7b, 0x73, 0xeb, 0x51, 0x84, 0x8c, 0x7a, 0x61, 
    0x8d, 0x92, 0x48, 0x9f, 0xd7, 0x0e, 0x62, 0x8e, 0x5a, 0x58, 
    0x47, 0x60, 0x35, 0x9c, 0x5a, 0x6e, 0x10, 0x2f, 0x0a, 0x19, 
    0x1c, 0x3f, 0x0a, 0x19, 0x1c, 0x3f, 0xf5, 0xe6, 0xe3, 0xc0, 
    0x07, 0x93, 0x9e, 0x91, 0x7b, 0x6d, 0x0a, 0x4a, 0x2a, 0x21, 
    0xdb, 0xfb, 0x40, 0x1c, 0x96, 0xff, 0xa1, 0x8e, 0x14, 0xde, 
    0x12, 0xff, 0x30, 0x7e, 0x02, 0xff, 0x12, 0xfe, 0xfd, 0x00, 
    0xed, 0x01, 0x42, 0x11, 0x91, 0xaa, 0xfe, 0x89, 0x1f, 0x1a, 
    0x9b, 0xb7, 0xb2, 0xf6, 0xef, 0x73, 0x92, 0x49, 0x8d, 0x84, 
    0xcc, 0x21, 0x98, 0x86, 0x98, 0x06, 0x98, 0x86, 0x98, 0x02, 
    0x67, 0x79, 0x67, 0xfd, 0x01, 0x00, 0x00, 0x00, 0x01, 0x00, 
    0x00, 0x00, 0x01, 0x00, 0x00, 0x00, 0x00, 0x00, 0x00, 0x00, 
    0x01, 0x00, 0x00, 0x00, 0x00, 0x00, 0x00, 0x00, 0x00, 0x00, 
    0x00, 0x00, 0x01, 0x00, 0x00, 0x00, 0x38, 0xcd, 0x21, 0x7b, 
    0x6a, 0xaf, 0x7c, 0xf0, 0xc4, 0x58, 0x07, 0x7f, 0x2d, 0xfb, 
    0xdb, 0xfe, 0xa7, 0x81, 0x9d, 0x89, 0x8d, 0xd9, 0xd9, 0xca, 
    0xad, 0xd9, 0xd9, 0xca, 0x52, 0x26, 0x26, 0x35, 0x26, 0xe5, 
    0xf5, 0xfe, 0x3b, 0xa4, 0x71, 0x1b, 0x44, 0xcb, 0xfd, 0xb6, 
    0x9a, 0xf3, 0x27, 0x22, 0xc8, 0xfa, 0x78, 0x6c, 0xe9, 0xfa, 
    0x6e, 0x74, 0xe8, 0xfa, 0x6e, 0x74, 0x17, 0x05, 0x91, 0x8b, 
    0x93, 0x49, 0xa2, 0x64, 0xfc, 0x78, 0x4b, 0xb5, 0x20, 0x51, 
    0x90, 0xb5, 0x4e, 0x65, 0x9e, 0xa3, 0x28, 0xa0, 0x04, 0xba, 
    0x40, 0xa6, 0x48, 0x39, 0x40, 0xa6, 0x48, 0x39, 0xbf, 0x59, 
    0xb7, 0xc6, 0x2f, 0xf4, 0xdf, 0x7b, 0x46, 0x8f, 0x30, 0x10, 
    0x65, 0x59, 0x79, 0x8e, 0xc7, 0x96, 0xe4, 0xed, 0x3f, 0x2b, 
    0x6d, 0x9f, 0xae, 0xad, 0xe9, 0x99, 0xae, 0xaf, 0x69, 0x9d, 
    0x51, 0x50, 0x96, 0x62, 0xb9, 0x23, 0x8e, 0xa3, 0x0b, 0x15, 
    0x87, 0x3a, 0x9b, 0x56, 0x2d, 0x71, 0x0e, 0x35, 0xb6, 0xea, 
    0x8d, 0xce, 0xa1, 0x29, 0x8e, 0x2a, 0xfa, 0x0b, 0x8e, 0x0a, 
    0xea, 0x09, 0x71, 0xf5, 0x15, 0xf6, 0x61, 0x8e, 0xce, 0xa5, 
    0x47, 0xce, 0x20, 0x70, 0x3b, 0xb3, 0x8b, 0xa1, 0x0b, 0xbe, 
    0x46, 0x5f, 0x2a, 0x45, 0xdc, 0x1b, 0x8b, 0x9a, 0x10, 0xbf, 
    0x8b, 0x9a, 0x90, 0xbf, 0x74, 0x65, 0x6f, 0x40, 0xfd, 0x99, 
    0x2b, 0x2c, 0x34, 0xd2, 0x98, 0x6c, 0xa2, 0x96, 0x7f, 0xeb, 
    0x01, 0x7f, 0xce, 0xf3, 0x57, 0xde, 0x3a, 0xbc, 0x73, 0xbe, 
    0x1d, 0xd9, 0x73, 0xbe, 0x1f, 0xd9, 0x8c, 0x41, 0xe0, 0x26, 
    0xce, 0xa8, 0xec, 0x37, 0xd6, 0x13, 0x47, 0xb2, 0x58, 0xbd, 
    0x88, 0xa5, 0x22, 0xbb, 0x85, 0x61, 0xaf, 0xbd, 0x6d, 0x5a, 
    0x32, 0x89, 0xed, 0x6b, 0x3a, 0x99, 0xed, 0x6b, 0xc5, 0x66, 
    0x12, 0x94, 0x00, 0x00, 0x00, 0x00, 0x00, 0x00, 0x00, 0x00, 
    0x00, 0x00, 0x00, 0x00, 0x00, 0x00, 0x00, 0x00, 0x01, 0x00, 
    0x00, 0x00, 0x00, 0x00, 0x00, 0x00, 0x00, 0x00, 0x00, 0x00, 
    0x01, 0x00, 0x00, 0x00, 0x7c, 0x06, 0x63, 0x8a, 0x5e, 0x18, 
    0xbb, 0x88, 0x3a, 0x7a, 0xf9, 0xd3, 0x4d, 0x85, 0xfe, 0x2a, 
    0x19, 0x8f, 0x50, 0xc3, 0xcd, 0x23, 0x9f, 0xcc, 0xcd, 0x2b, 
    0xdf, 0xce, 0x32, 0xd4, 0x20, 0x31, 0x81, 0x32, 0xe7, 0x3e, 
    0x93, 0x3a, 0x17, 0x89, 0x21, 0x48, 0xf5, 0xd7, 0x60, 0x44, 
    0x37, 0x04, 0x78, 0x53, 0xb3, 0xed, 0xb0, 0xcc, 0x3e, 0xad, 
    0xb0, 0xc4, 0x36, 0xad, 0x4f, 0x3b, 0xc9, 0x52, 0x3a, 0x01, 
    0x6b, 0xa2, 0xf2, 0x11, 0x50, 0x3d, 0x30, 0xb4, 0x5e, 0xfe, 
    0x87, 0x19, 0x58, 0x7c, 0x7d, 0x90, 0xa4, 0x7a, 0xb9, 0x3c, 
    0xb8, 0xf6, 0xb9, 0x3c, 0xb8, 0xfe, 0x46, 0xc3, 0x47, 0x01, 
    0xbb, 0xb5, 0xfc, 0x72, 0xc6, 0x36, 0x7c, 0xbd, 0x08, 0x16, 
    0xf8, 0x39, 0x0e, 0xcf, 0xed, 0xa8, 0x1a, 0x8f, 0xd0, 0x19, 
    0x53, 0xe7, 0x55, 0x39, 0x13, 0xe7, 0x55, 0x39, 0xec, 0x18, 
    0xaa, 0xc6, 0xc2, 0x10, 0x66, 0xbf, 0x83, 0xbf, 0x7a, 0x46, 
    0x84, 0xe2, 0x90, 0xf9, 0x16, 0xf6, 0x0d, 0x2e, 0x1c, 0x8f, 
    0xb0, 0x81, 0x08, 0x96, 0xf4, 0x1b, 0x18, 0x96, 0xf4, 0x1b, 
    0xe7, 0x69, 0x0b, 0xe4, 0x7f, 0x88, 0xfd, 0xa9, 0xaa, 0x9c, 
    0xb8, 0x31, 0x91, 0xf0, 0xe1, 0xa6, 0xe2, 0x4e, 0x8d, 0x99, 
    0x15, 0xbe, 0x00, 0x0c, 0x79, 0xfa, 0x69, 0x97, 0x79, 0xfe, 
    0x49, 0x95, 0x86, 0x01, 0xb6, 0x6a, 0xc8, 0xde, 0x64, 0x2c, 
    0x07, 0x35, 0xdf, 0x26, 0x62, 0x1f, 0xa3, 0xc3, 0x95, 0xfc, 
    0x2d, 0x04, 0x46, 0x90, 0x31, 0xbd, 0x25, 0x7d, 0x73, 0x0c, 
    0x25, 0x7c, 0x73, 0x0c, 0xda, 0x83, 0x8c, 0xf3, 0xfe, 0x6b, 
    0xd7, 0x46, 0x86, 0xf6, 0x0b, 0x5e, 0x55, 0xde, 0x4c, 0x5d, 
    0x67, 0xec, 0x0f, 0x6c, 0x7c, 0x97, 0x6a, 0x2a, 0xe6, 0x8f, 
    0x2a, 0xa3, 0x66, 0xdf, 0x2a, 0xab, 0x99, 0x20, 0xd5, 0x54, 
    0x00, 0x00, 0x00, 0x00, 0x00, 0x00, 0x00, 0x00, 0x01, 0x00, 
    0x00, 0x00, 0x01, 0x00, 0x00, 0x00, 0x00, 0x00, 0x00, 0x00, 
    0x00, 0x00, 0x00, 0x00, 0x00, 0x00, 0x00, 0x00, 0x01, 0x00, 
    0x00, 0x00, 0x12, 0x00, 0x77, 0x8b, 0xee, 0x27, 0x42, 0x81, 
    0x7c, 0x43, 0x31, 0xf3, 0x45, 0x89, 0xed, 0x09, 0x18, 0x79, 
    0xda, 0x83, 0xce, 0xf8, 0x4f, 0x03, 0xce, 0xf8, 0xdb, 0x03, 
    0x31, 0x07, 0x24, 0xfc, 0x84, 0xb3, 0x04, 0x7b, 0x22, 0xf6, 
    0xa6, 0x45, 0x8a, 0x6a, 0xcb, 0x6f, 0x5e, 0x6b, 0x31, 0x55, 
    0xe7, 0x2d, 0x17, 0x2a, 0xf4, 0x03, 0x33, 0x3b, 0xf6, 0x43, 
    0x33, 0x3b, 0x09, 0xbc, 0xcc, 0xc4, 0x16, 0x4c, 0x18, 0xd8, 
    0xc8, 0xa2, 0xa8, 0x45, 0xed, 0xd9, 0xc8, 0x6a, 0xe1, 0x39, 
    0x8c, 0x26, 0x2c, 0x21, 0x8e, 0x26, 0x40, 0xf1, 0x86, 0x04, 
    0x78, 0x71, 0x8e, 0x26, 0x87, 0x8e, 0x71, 0xd9, 0x61, 0x1e, 
    0xb0, 0x82, 0x4b, 0x54, 0xb5, 0xde, 0x8d, 0xba, 0x26, 0xc7, 
    0xbd, 0x54, 0xc7, 0x6f, 0x2c, 0x1f, 0x50, 0x38, 0x18, 0x5d, 
    0x40, 0x3e, 0x18, 0x5d, 0x40, 0x3e, 0xe7, 0xa2, 0xbf, 0xc1, 
    0x2d, 0x17, 0x5a, 0xb0, 0xa9, 0xdd, 0x60, 0x10, 0xe9, 0xd3, 
    0x15, 0x8a, 0x7d, 0x94, 0x20, 0xf1, 0x8e, 0x0c, 0xdb, 0x48, 
    0xef, 0x4b, 0xab, 0x9e, 0xef, 0x4b, 0xab, 0xde, 0x10, 0xb4, 
    0x54, 0x21, 0x2c, 0x3e, 0x3a, 0x45, 0x53, 0x0e, 0x7f, 0x2f, 
    0x44, 0x31, 0x55, 0x48, 0xec, 0x31, 0x2b, 0x38, 0xb4, 0xa0, 
    0xe1, 0x0a, 0xbc, 0x0b, 0x61, 0x2b, 0xbc, 0x03, 0x61, 0x6b, 
    0x43, 0xfc, 0x9e, 0xd4, 0x6c, 0x85, 0xa1, 0x59, 0x6c, 0x25, 
    0x95, 0x9c, 0x63, 0xd9, 0xbc, 0x35, 0x18, 0x03, 0x89, 0x6b, 
    0xc7, 0xd2, 0xf5, 0xee, 0xe3, 0x71, 0xc5, 0xaa, 0xe3, 0x51, 
    0xc5, 0xea, 0x1c, 0xae, 0x3a, 0x15, 0x05, 0x1b, 0x2c, 0xd0, 
    0x30, 0xc2, 0x94, 0x31, 0x54, 0xc8, 0x8b, 0x8f, 0xde, 0x62, 
    0x1d, 0x58, 0x99, 0x77, 0x2c, 0xc9, 0x1c, 0xf3, 0x34, 0x4d, 
    0x1c, 0xf3, 0x3c, 0x4d, 0xe3, 0x0c, 0xc3, 0xb2, 0x00, 0x00, 
    0x00, 0x00, 0x00, 0x00, 0x00, 0x00, 0x00, 0x00, 0x00, 0x00, 
    0x01, 0x00, 0x00, 0x00, 0x01, 0x00, 0x00, 0x00, 0x01, 0x00, 
    0x00, 0x00, 0x01, 0x00, 0x00, 0x00, 0x00, 0x00, 0x00, 0x00, 
    0x14, 0x2e, 0x50, 0x55, 0x21, 0x4f, 0xb4, 0x93, 0x75, 0x95, 
    0x3f, 0x2f, 0x6e, 0x70, 0x02, 0x44, 0x9e, 0xd4, 0xee, 0x10, 
    0xeb, 0x75, 0x42, 0x4c, 0xeb, 0x75, 0x42, 0x44, 0x14, 0x8a, 
    0xbd, 0xbb, 0xef, 0x2d, 0xb8, 0x77, 0x9f, 0x2c, 0x1d, 0x29, 
    0xe0, 0x05, 0x9c, 0x5a, 0xcf, 0xf6, 0xf6, 0x79, 0x4b, 0x06, 
    0xac, 0xef, 0xaa, 0x94, 0xac, 0xed, 0xca, 0x14, 0xac, 0xef, 
    0x35, 0xeb, 0x53, 0x10, 0xb9, 0x22, 0x21, 0xcc, 0x95, 0x41, 
    0x36, 0xec, 0x7c, 0x83, 0x66, 0xe0, 0x36, 0x48, 0x65, 0xe4, 
    0x7a, 0xf2, 0xe2, 0x56, 0xb6, 0xf0, 0xe0, 0xee, 0xb6, 0xf0, 
    0xe0, 0xee, 0x49, 0x0f, 0x1f, 0x11, 0x7d, 0x76, 0xd8, 0xa0, 
    0xc1, 0x10, 0xb9, 0x4c, 0xcd, 0xb2, 0xa4, 0x27, 0x53, 0x97, 
    0xe3, 0x7e, 0xe0, 0xfb, 0x95, 0x97, 0x61, 0x6a, 0x96, 0x1b, 
    0x61, 0x7b, 0x96, 0x9b, 0x9e, 0x84, 0x69, 0x64, 0x3e, 0x37, 
    0xa1, 0xb8, 0x3a, 0x09, 0xee, 0x34, 0x2a, 0xd8, 0x7a, 0x51, 
    0x8b, 0x6c, 0xe8, 0x7d, 0x9c, 0x51, 0x8f, 0xc3, 0x90, 0x1d, 
    0xbe, 0xc4, 0x90, 0x19, 0xbf, 0xc4, 0x6f, 0xe6, 0x40, 0x3b, 
    0x13, 0xa1, 0x45, 0x1b, 0x0b, 0x8b, 0x22, 0xec, 0x34, 0x25, 
    0x8e, 0x44, 0x8c, 0x9b, 0x72, 0x12, 0xb8, 0x8b, 0x5f, 0x54, 
    0xb0, 0x70, 0x1a, 0x74, 0xb0, 0xba, 0x1a, 0x14, 0x4f, 0x45, 
    0xe5, 0xeb, 0x52, 0xdc, 0x5b, 0x77, 0xdb, 0xa7, 0xac, 0x22, 
    0x15, 0xf9, 0xd9, 0xa4, 0xc9, 0x6a, 0xf6, 0x9f, 0xb3, 0x62, 
    0xd4, 0x57, 0xb1, 0x6a, 0xa9, 0xc5, 0xb1, 0x6a, 0xb9, 0xc5, 
    0x4e, 0x95, 0x46, 0x3a, 0x82, 0xa5, 0x81, 0x62, 0x47, 0xa5, 
    0xa6, 0xca, 0x90, 0x67, 0xee, 0x22, 0x57, 0x4d, 0x11, 0x48, 
    0xe9, 0x55, 0x2d, 0xf7, 0x7a, 0x17, 0x29, 0x8e, 0x7a, 0x55, 
    0x29, 0xce, 0x85, 0xaa, 0xd6, 0x31, 0x01, 0x00, 0x00, 0x00, 
    0x01, 0x00, 0x00, 0x00, 0x00, 0x00, 0x00, 0x00, 0x00, 0x00, 
    0x00, 0x00, 0x01, 0x00, 0x00, 0x00, 0x01, 0x00, 0x00, 0x00, 
    0x01, 0x00, 0x00, 0x00, 0x00, 0x00, 0x00, 0x00, 0x1c, 0xea, 
    0x42, 0x9b, 0x87, 0x51, 0xd4, 0xb1, 0x0d, 0xa3, 0x13, 0x96, 
    0xed, 0xf5, 0x90, 0xce, 0x49, 0x6b, 0xd9, 0xb8, 0x19, 0x62, 
    0x70, 0xb2, 0x19, 0x63, 0x50, 0xb2, 0xe6, 0x9c, 0xaf, 0x4d, 
    0x25, 0x1a, 0x7e, 0x0d, 0x88, 0x4b, 0x2e, 0xb3, 0xea, 0x33, 
    0x81, 0xe3, 0xb2, 0x90, 0xcb, 0x97, 0xd5, 0x33, 0x13, 0x84, 
    0xb4, 0x03, 0x11, 0x31, 0xb4, 0x03, 0x11, 0x10, 0x4b, 0xfc, 
    0xee, 0xef, 0x5a, 0x56, 0xd7, 0x2a, 0xc2, 0x83, 0x8a, 0x07, 
    0xa1, 0x6f, 0xf9, 0x84, 0x26, 0x21, 0x67, 0xa5, 0xe2, 0x8a, 
    0xc6, 0xb3, 0x52, 0x0e, 0xce, 0x21, 0x52, 0x0e, 0xce, 0x21, 
    0xad, 0xf1, 0x31, 0xde, 0x28, 0x6a, 0x17, 0x5b, 0x92, 0xd0, 
    0xf5, 0x33, 0xfa, 0x22, 0x54, 0xf7, 0x82, 0xc3, 0x71, 0x73, 
    0x80, 0x48, 0x1f, 0x7a, 0x9c, 0x70, 0x74, 0xba, 0x98, 0x70, 
    0x55, 0xba, 0x67, 0x8f, 0xaa, 0x45, 0x28, 0x9f, 0xb7, 0xcc, 
    0x72, 0x83, 0x2a, 0xe7, 0x9c, 0xa6, 0xa3, 0x8f, 0x38, 0xe7, 
    0x6d, 0x7d, 0x3d, 0xb0, 0x83, 0xfb, 0x23, 0xf1, 0x82, 0xff, 
    0x2b, 0xb1, 0x83, 0xff, 0xd4, 0x4e, 0x7c, 0x00, 0x7c, 0x79, 
    0x36, 0xcc, 0x2d, 0xf5, 0xae, 0x00, 0x8d, 0x7b, 0xa7, 0xcf, 
    0xb2, 0xde, 0xa2, 0x7c, 0xf2, 0xd5, 0x95, 0x0d, 0x94, 0xb0, 
    0x75, 0x26, 0x96, 0xf0, 0x35, 0x24, 0x69, 0x0f, 0xca, 0xdb, 
    0x20, 0x9d, 0x8f, 0x24, 0xc9, 0x97, 0x2b, 0x1e, 0xf5, 0xaf, 
    0x7a, 0x22, 0xa6, 0xa7, 0x1e, 0x76, 0xf4, 0x95, 0x7e, 0x7a, 
    0x3d, 0x97, 0x3e, 0xda, 0xbd, 0x97, 0x3e, 0xfa, 0x42, 0x68, 
    0xc1, 0x05, 0x78, 0xe2, 0x57, 0x31, 0xcd, 0xe2, 0x53, 0x25, 
    0x2a, 0x66, 0x68, 0x7d, 0x3d, 0x09, 0xcf, 0x8a, 0x29, 0xb7, 
    0xe3, 0x4c, 0x0b, 0x77, 0x09, 0x01, 0x09, 0x77, 0x49, 0x01, 
    0xf6, 0x88, 0xb6, 0xfe, 0x01, 0x00, 0x00, 0x00, 0x01, 0x00, 
    0x00, 0x00, 0x00, 0x00, 0x00, 0x00, 0x00, 0x00, 0x00, 0x00, 
    0x01, 0x00, 0x00, 0x00, 0x01, 0x00, 0x00, 0x00, 0x01, 0x00, 
    0x00, 0x00, 0x00, 0x00, 0x00, 0x00, 0x98, 0xac, 0x21, 0x34, 
    0xf3, 0xbb, 0x7f, 0x8f, 0x29, 0x3a, 0x0f, 0x0a, 0xb4, 0xb8, 
    0x5d, 0x00, 0x89, 0x59, 0xd7, 0x43, 0x0b, 0x3a, 0x64, 0x19, 
    0x09, 0x3a, 0x65, 0x08, 0xf6, 0xc5, 0x9a, 0xf7, 0xb2, 0x0d, 
    0xb7, 0xbd, 0xbc, 0x0d, 0x50, 0xca, 0xd4, 0x1d, 0x93, 0x44, 
    0xc0, 0xa0, 0x14, 0x0f, 0xfe, 0x7a, 0x3c, 0x1b, 0x37, 0xba, 
    0x61, 0x77, 0x37, 0xba, 0x70, 0x7f, 0xc8, 0x45, 0x8f, 0x80, 
    0x2e, 0x33, 0xd8, 0x88, 0x61, 0xa4, 0xce, 0x30, 0xe1, 0xea, 
    0x8c, 0x6f, 0xf2, 0x1f, 0x2d, 0xaa, 0xb0, 0x7b, 0x9c, 0x43, 
    0xd1, 0xff, 0xed, 0x17, 0xd0, 0xff, 0xad, 0x13, 0x2f, 0x00, 
    0x52, 0xec, 0x9c, 0xda, 0x41, 0x4d, 0xaa, 0x56, 0xab, 0x95, 
    0x5e, 0x54, 0xb2, 0xae, 0x30, 0xcd, 0x2c, 0x5b, 0x12, 0x29, 
    0xe0, 0xe4, 0x02, 0x41, 0xbb, 0x65, 0x02, 0x49, 0xb9, 0x64, 
    0xfd, 0xb6, 0x46, 0x9b, 0x35, 0xf0, 0xb1, 0x56, 0xa9, 0x8e, 
    0x45, 0xa5, 0xe7, 0x9e, 0xf1, 0xc1, 0x65, 0xa3, 0x38, 0x96, 
    0x73, 0x29, 0xa8, 0x51, 0x54, 0x77, 0x31, 0x4a, 0x65, 0x77, 
    0xb1, 0x43, 0x9a, 0x88, 0x4e, 0xbc, 0x32, 0x24, 0x99, 0x19, 
    0xd4, 0x08, 0x13, 0x2f, 0xbf, 0x5b, 0x34, 0xfb, 0x2f, 0x93, 
    0xd1, 0x9b, 0xdc, 0x70, 0x6e, 0x19, 0x56, 0x53, 0x44, 0xf3, 
    0x5e, 0x53, 0x44, 0x7b, 0xa1, 0xac, 0xbb, 0x84, 0x08, 0xd9, 
    0x8e, 0x10, 0xb1, 0x88, 0x4e, 0x33, 0x86, 0xdd, 0xc1, 0xbc, 
    0x0a, 0x83, 0x84, 0x68, 0x75, 0x6f, 0x67, 0x77, 0x44, 0x85, 
    0x07, 0x76, 0x44, 0x8f, 0x07, 0x77, 0xbb, 0x70, 0xf8, 0x88, 
    0x83, 0x18, 0x11, 0xdb, 0xf2, 0xea, 0x5e, 0x78, 0x9d, 0xb4, 
    0xa7, 0xd0, 0x77, 0x32, 0xfd, 0xb2, 0x90, 0xad, 0xb7, 0xdf, 
    0x30, 0x02, 0xff, 0xd0, 0x20, 0x00, 0xff, 0xd0, 0xcf, 0xff, 
    0x00, 0x2f, 0x00, 0x00, 0x00, 0x00, 0x01, 0x00, 0x00, 0x00, 
    0x00, 0x00, 0x00, 0x00, 0x01, 0x00, 0x00, 0x00, 0x00, 0x00, 
    0x00, 0x00, 0x00, 0x00, 0x00, 0x00, 0x00, 0x00, 0x00, 0x00, 
    0x01, 0x00, 0x00, 0x00, 0x80, 0xde, 0x9b, 0x24, 0x79, 0xde, 
    0x52, 0x83, 0xf4, 0x1f, 0x16, 0x0a, 0xa5, 0xf0, 0x7a, 0xfc, 
    0xd9, 0x0d, 0x5f, 0x0d, 0xf9, 0x9a, 0x33, 0x4b, 0xf9, 0x9a, 
    0x33, 0x09, 0x06, 0x65, 0xcc, 0xf6, 0x35, 0x08, 0x23, 0xaa, 
    0x06, 0xb1, 0x5b, 0x50, 0xdf, 0xa4, 0xa3, 0xcd, 0xc0, 0x08, 
    0xe6, 0x85, 0xcd, 0xb1, 0x2d, 0x1a, 0xdf, 0x32, 0xe6, 0x11, 
    0xcf, 0x30, 0xa7, 0x11, 0x30, 0xcf, 0x58, 0xee, 0x4c, 0xad, 
    0x9a, 0x46, 0xe1, 0x56, 0x69, 0x88, 0x9a, 0xbe, 0xe3, 0x93, 
    0xa5, 0x8d, 0x59, 0x33, 0x0a, 0x86, 0x13, 0x46, 0x08, 0xa6, 
    0x93, 0x86, 0x08, 0xa6, 0x93, 0x06, 0xf7, 0x59, 0x6c, 0xf9, 
    0xc0, 0x96, 0x57, 0x1e, 0xef, 0xc6, 0x33, 0x25, 0x5d, 0x30, 
    0x18, 0x77, 0x04, 0x7f, 0x63, 0x76, 0xc3, 0x81, 0x5d, 0x55, 
    0xdf, 0xe5, 0xda, 0x74, 0xd7, 0xe5, 0xda, 0x74, 0x28, 0x1a, 
    0x25, 0x8b, 0x58, 0xa9, 0xfa, 0x1c, 0xd9, 0xb2, 0xaa, 0xa8, 
    0x52, 0x74, 0xba, 0x35, 0x97, 0xc3, 0x11, 0x61, 0x0d, 0x89, 
    0x5b, 0x70, 0x11, 0xed, 0x57, 0x73, 0x15, 0xed, 0x53, 0x71, 
    0xea, 0x12, 0xac, 0x8e, 0xaf, 0x5b, 0xae, 0xc5, 0x6d, 0x5b, 
    0x68, 0xc1, 0x77, 0x6d, 0xba, 0x91, 0xfb, 0xd0, 0x12, 0x23, 
    0xbe, 0x02, 0x12, 0xfc, 0x2a, 0xb2, 0x88, 0xfc, 0xaa, 0x92, 
    0x98, 0xfc, 0x55, 0x6d, 0x67, 0x03, 0xaf, 0x1b, 0xbf, 0x3e, 
    0xe4, 0x3c, 0x17, 0x8b, 0x4d, 0x1f, 0x23, 0xa6, 0x59, 0x00, 
    0x3b, 0x4e, 0x54, 0x67, 0xe3, 0xc9, 0x5d, 0x46, 0x01, 0x4b, 
    0x5d, 0x44, 0x21, 0x4b, 0xa2, 0xbb, 0xde, 0xb4, 0xcf, 0x48, 
    0x2a, 0x76, 0x2d, 0xb7, 0x31, 0x7f, 0xc7, 0x35, 0xb1, 0x88, 
    0x94, 0x5f, 0xa7, 0xe9, 0xde, 0xb7, 0xbf, 0x5a, 0x16, 0x37, 
    0xb7, 0xdd, 0x96, 0x37, 0xb7, 0xd9, 0x69, 0xc8, 0x48, 0x26, 
    0x00, 0x00, 0x00, 0x00, 0x00, 0x00, 0x00, 0x00, 0x01, 0x00, 
    0x00, 0x00, 0x01, 0x00, 0x00, 0x00, 0x00, 0x00, 0x00, 0x00, 
    0x00, 0x00, 0x00, 0x00, 0x00, 0x00, 0x00, 0x00, 0x01, 0x00, 
    0x00, 0x00, 0x35, 0x0b, 0x81, 0x6e, 0x7b, 0xa4, 0x51, 0x57, 
    0x5a, 0xb1, 0xff, 0xd2, 0x53, 0x0a, 0xdc, 0xfc, 0x94, 0x89, 
    0x24, 0x1a, 0x00, 0x9e, 0x78, 0x3b, 0x10, 0x9b, 0x38, 0x3b, 
    0xef, 0x64, 0xc7, 0xc4, 0xa4, 0x4f, 0xee, 0x1a, 0x58, 0xb4, 
    0x30, 0x49, 0x03, 0xc1, 0x50, 0xdc, 0xb1, 0xec, 0x5b, 0x94, 
    0x83, 0x06, 0x8e, 0x2c, 0x43, 0x84, 0xd9, 0xac, 0x03, 0x84, 
    0xda, 0xac, 0xfc, 0x7b, 0x25, 0x53, 0x0c, 0x64, 0x40, 0xb9, 
    0x49, 0x48, 0x41, 0x1d, 0xca, 0x4a, 0x67, 0x57, 0x1c, 0x2e, 
    0x2b, 0x2d, 0xb4, 0x15, 0x0b, 0xb5, 0x7c, 0x80, 0x96, 0x9d, 
    0x7c, 0x80, 0x9a, 0x9d, 0x83, 0x7f, 0x65, 0x62, 0x57, 0x29, 
    0x49, 0x40, 0xbf, 0x1a, 0xbc, 0xa9, 0xbb, 0xa4, 0xb0, 0xa9, 
    0xe1, 0x39, 0x3b, 0xd6, 0xc7, 0x04, 0x4f, 0xc1, 0x41, 0x2e, 
    0x2f, 0x85, 0x41, 0x2c, 0x2f, 0xc5, 0xbe, 0xd3, 0xd0, 0x3a, 
    0xbd, 0x99, 0x11, 0x63, 0xd0, 0xbd, 0x9f, 0xf4, 0xda, 0x71, 
    0xf1, 0xbd, 0xae, 0xc2, 0x1f, 0xf7, 0x4e, 0x12, 0x29, 0x54, 
    0x20, 0x52, 0x79, 0xde, 0x28, 0x52, 0x79, 0xd6, 0xd7, 0xad, 
    0x86, 0x29, 0x3d, 0xe0, 0xe2, 0x58, 0xe4, 0xb3, 0x40, 0x94, 
    0x24, 0xe9, 0x10, 0xea, 0x70, 0x36, 0x37, 0x84, 0x37, 0xf6, 
    0xd6, 0x32, 0x35, 0xfc, 0x0a, 0xba, 0x35, 0xfc, 0x1a, 0xba, 
    0xca, 0x03, 0xe5, 0x45, 0x5c, 0xd7, 0x39, 0x71, 0x09, 0x3b, 
    0x31, 0x93, 0x18, 0x99, 0x9b, 0x43, 0x33, 0x39, 0x62, 0x7e, 
    0xd9, 0x02, 0x22, 0xed, 0xd9, 0x08, 0x2a, 0xfe, 0xd9, 0x08, 
    0x22, 0xff, 0x26, 0xf7, 0xdd, 0x00, 0xf8, 0x80, 0xe6, 0x7a, 
    0x12, 0xe5, 0x3b, 0x51, 0x04, 0xf9, 0xcc, 0x3f, 0xcb, 0x42, 
    0xeb, 0x28, 0xae, 0xee, 0x02, 0xd5, 0x0d, 0x18, 0x27, 0x15, 
    0x0f, 0x18, 0x26, 0x15, 0xf0, 0xe7, 0xd9, 0xea, 0x01, 0x00, 
    0x00, 0x00, 0x01, 0x00, 0x00, 0x00, 0x00, 0x00, 0x00, 0x00, 
    0x00, 0x00, 0x00, 0x00, 0x00, 0x00, 0x00, 0x00, 0x00, 0x00, 
    0x00, 0x00, 0x00, 0x00, 0x00, 0x00, 0x01, 0x00, 0x00, 0x00, 
    0x4b, 0x1d, 0x31, 0xeb, 0x9e, 0xea, 0x2f, 0x38, 0x01, 0x30, 
    0xbe, 0x26, 0x94, 0x22, 0x25, 0x73, 0x29, 0x04, 0xe7, 0x8a, 
    0x85, 0x80, 0x77, 0xfe, 0x84, 0x80, 0x77, 0xfe, 0x7b, 0x7f, 
    0x88, 0x01, 0x9d, 0x4e, 0xd9, 0xec, 0xa2, 0xd8, 0xd5, 0xa9, 
    0x8d, 0x42, 0x0f, 0x5e, 0x6f, 0xc6, 0xee, 0xfe, 0xca, 0x2c, 
    0xd6, 0x5f, 0x66, 0xcd, 0xcf, 0xf2, 0x66, 0x8d, 0xcf, 0xde, 
    0x99, 0x72, 0x30, 0x21, 0xc2, 0xfb, 0xea, 0x85, 0xb3, 0x92, 
    0xf2, 0xf9, 0xa3, 0xc8, 0x45, 0xd3, 0x7d, 0x19, 0xf6, 0xcd, 
    0xd4, 0xc3, 0x45, 0xe7, 0x54, 0xe3, 0x47, 0xdf, 0x54, 0xc3, 
    0x47, 0xdf, 0xab, 0x3c, 0xb8, 0x20, 0x21, 0x36, 0xfa, 0xa6, 
    0x35, 0x15, 0x0e, 0xf0, 0x28, 0x44, 0xba, 0x93, 0x70, 0xc8, 
    0x9e, 0xaf, 0x3c, 0x25, 0x31, 0x0c, 0xdc, 0x55, 0xf0, 0xee, 
    0x1c, 0x45, 0xf0, 0xee, 0xe3, 0xba, 0x0f, 0x11, 0xe0, 0x28, 
    0xf4, 0x7e, 0xe5, 0x04, 0xa8, 0xe5, 0x5e, 0x48, 0x1b, 0xc0, 
    0x8e, 0x17, 0x05, 0xa3, 0x2d, 0xd0, 0x3c, 0xf0, 0x6d, 0x89, 
    0xb4, 0xe0, 0x6d, 0x88, 0xb4, 0xe0, 0x92, 0x77, 0x4b, 0x1f, 
    0xc2, 0x0f, 0x82, 0x73, 0xb7, 0x27, 0x88, 0x2e, 0x27, 0x3e, 
    0x89, 0xfb, 0x61, 0x37, 0xdd, 0x66, 0xb7, 0x19, 0x1e, 0x36, 
    0x03, 0x59, 0x1c, 0xee, 0x23, 0x19, 0x1c, 0xa6, 0xdc, 0xe6, 
    0xe3, 0x59, 0xa0, 0x0c, 0x00, 0xd8, 0x55, 0xd9, 0x56, 0x47, 
    0x6e, 0x8b, 0xc9, 0xb5, 0xd7, 0x39, 0xfb, 0x1a, 0x4d, 0xbc, 
    0xe5, 0x65, 0x4c, 0x53, 0xc5, 0x60, 0x4c, 0x19, 0xe5, 0x60, 
    0xb3, 0xe6, 0x1a, 0x9f, 0xf7, 0x25, 0x77, 0x24, 0x51, 0x25, 
    0x46, 0x11, 0x38, 0x62, 0xc7, 0x6b, 0x52, 0x9a, 0x56, 0x9b, 
    0x22, 0x56, 0xfa, 0xd4, 0xaa, 0xb2, 0x53, 0x0d, 0x2a, 0xb2, 
    0x53, 0x0d, 0xd5, 0x4d, 0xac, 0xf2, 0x00, 0x00, 0x00, 0x00, 
    0x01, 0x00, 0x00, 0x00, 0x00, 0x00, 0x00, 0x00, 0x01, 0x00, 
    0x00, 0x00, 0x00, 0x00, 0x00, 0x00, 0x00, 0x00, 0x00, 0x00, 
    0x00, 0x00, 0x00, 0x00, 0x01, 0x00, 0x00, 0x00, 0x0e, 0x64, 
    0x3e, 0x18, 0x3b, 0xcb, 0xeb, 0xf2, 0x02, 0x44, 0x7b, 0x05, 
    0x15, 0x20, 0x2e, 0x45, 0x8f, 0x10, 0x33, 0xb6, 0x83, 0xe0, 
    0xb2, 0x9d, 0x83, 0xe0, 0xb2, 0x9d, 0x7c, 0x1f, 0x4d, 0x62, 
    0x8e, 0x8a, 0x04, 0x60, 0x17, 0x58, 0xc2, 0x72, 0x0f, 0x5a, 
    0x00, 0x4e, 0xcc, 0xc9, 0x4f, 0xbf, 0xda, 0x59, 0x02, 0x39, 
    0x4b, 0xd5, 0x76, 0x29, 0x4b, 0xd1, 0x56, 0x29, 0xb4, 0x2e, 
    0xa9, 0xd6, 0x9f, 0x51, 0x50, 0xd6, 0xf7, 0x24, 0x06, 0xa5, 
    0x0f, 0x2a, 0x25, 0xe3, 0x7b, 0xf1, 0x23, 0xb6, 0x2e, 0xa1, 
    0xf2, 0xeb, 0xbe, 0xed, 0x60, 0xcf, 0xbe, 0xed, 0x60, 0x8f, 
    0x41, 0x12, 0x9f, 0x70, 0x4a, 0xb0, 0x50, 0x89, 0xe3, 0xe3, 
    0xd0, 0x22, 0x7e, 0x8f, 0x69, 0x3e, 0x35, 0x72, 0x52, 0xf7, 
    0x35, 0x03, 0xed, 0xbf, 0xb5, 0x02, 0xcc, 0xbf, 0x35, 0x02, 
    0xcc, 0xbf, 0xca, 0xfd, 0x33, 0x40, 0xb2, 0x0d, 0x23, 0xcc, 
    0xf6, 0xcf, 0x89, 0xb3, 0x07, 0x63, 0x92, 0xad, 0x47, 0x3d, 
    0x7d, 0xd3, 0xb3, 0x7e, 0xf0, 0x2c, 0xa7, 0x93, 0xe7, 0x98, 
    0xa7, 0xbf, 0xf4, 0x89, 0x58, 0x40, 0x0b, 0x76, 0xda, 0x21, 
    0x50, 0xb3, 0x08, 0x36, 0xcb, 0x8d, 0xd7, 0x74, 0xec, 0xaf, 
    0x56, 0x85, 0x2c, 0xf6, 0x28, 0xab, 0xbf, 0xf8, 0xf4, 0x09, 
    0x8b, 0xe2, 0xf4, 0x09, 0xaf, 0xe2, 0x0b, 0xf6, 0x50, 0x1d, 
    0x56, 0x3e, 0xd4, 0x03, 0x57, 0x23, 0xf4, 0xa3, 0x10, 0xb0, 
    0x8d, 0x06, 0x19, 0x69, 0x35, 0x6f, 0xfa, 0xc8, 0x37, 0x69, 
    0x3f, 0x5d, 0x35, 0x6c, 0x3f, 0x88, 0x35, 0x6d, 0xc0, 0x77, 
    0xca, 0x92, 0xc8, 0x3f, 0xce, 0x0c, 0xba, 0x1f, 0x44, 0xb7, 
    0x68, 0xfb, 0xb8, 0x4a, 0xfa, 0x9a, 0x94, 0x72, 0x98, 0x40, 
    0x89, 0xe2, 0x4f, 0x55, 0x98, 0xc2, 0xcf, 0x53, 0x98, 0xc2, 
    0x30, 0xac, 0x67, 0x3d, 0x01, 0x00, 0x00, 0x00, 0x00, 0x00, 
    0x00, 0x00, 0x01, 0x00, 0x00, 0x00, 0x01, 0x00, 0x00, 0x00, 
    0x01, 0x00, 0x00, 0x00, 0x00, 0x00, 0x00, 0x00, 0x00, 0x00, 
    0x00, 0x00, 0x01, 0x00, 0x00, 0x00, 0x0c, 0x43, 0x91, 0x3d, 
    0xe4, 0x75, 0xe0, 0xb3, 0x42, 0x9e, 0x5c, 0x75, 0x28, 0x41, 
    0x25, 0xfc, 0x3e, 0xa4, 0xc7, 0x67, 0x23, 0xc8, 0x44, 0x67, 
    0x23, 0xc8, 0x44, 0x67, 0xdc, 0x37, 0xbb, 0x98, 0x18, 0xb7, 
    0x3f, 0x2f, 0x0c, 0x34, 0x2e, 0xc8, 0x9f, 0x42, 0xa1, 0xc0, 
    0x5b, 0x8a, 0xb0, 0x48, 0xc0, 0xbe, 0x45, 0x80, 0x4c, 0x3e, 
    0xa0, 0x44, 0x4c, 0x3e, 0xa0, 0x40, 0xb3, 0xc1, 0x5f, 0xbf, 
    0xb8, 0x25, 0xf4, 0xa7, 0x68, 0xb3, 0x3f, 0x24, 0x90, 0xf4, 
    0xf8, 0x21, 0x7f, 0x86, 0x5d, 0xa6, 0xb4, 0xc9, 0x2b, 0x64, 
    0xb9, 0xd0, 0xed, 0xac, 0xb9, 0xd0, 0xe9, 0x2c, 0x46, 0x2f, 
    0x16, 0xd3, 0xd3, 0x0d, 0xa5, 0xf5, 0xb9, 0x05, 0xea, 0x11, 
    0xfb, 0x92, 0xf6, 0x73, 0xc8, 0xea, 0xcd, 0xe8, 0x0e, 0xe0, 
    0x65, 0x8f, 0xfc, 0x61, 0x14, 0xcc, 0xfc, 0x61, 0x54, 0xcc, 
    0x03, 0x9e, 0xab, 0x33, 0xda, 0x88, 0xe9, 0xf2, 0xfd, 0xc8, 
    0x19, 0x34, 0xde, 0x55, 0x52, 0x7b, 0xe8, 0xbe, 0xd3, 0xf8, 
    0xa4, 0x55, 0x24, 0xc4, 0xe9, 0x85, 0xe7, 0xf9, 0xe9, 0x05, 
    0x67, 0xfd, 0x16, 0xfa, 0x98, 0x02, 0xdd, 0xa3, 0x23, 0xec, 
    0xd5, 0xf7, 0x75, 0x13, 0x5b, 0x8d, 0x54, 0x02, 0x6c, 0xc2, 
    0x1e, 0x59, 0xc0, 0xfb, 0x5b, 0xc6, 0xf9, 0x5a, 0x77, 0xad, 
    0xf8, 0xda, 0x7f, 0xe9, 0x07, 0x25, 0x80, 0x16, 0xaa, 0x2f, 
    0xe7, 0xf3, 0x3b, 0x7d, 0x9d, 0x37, 0x97, 0x81, 0xa0, 0xa8, 
    0x10, 0x43, 0xe4, 0x3a, 0x4f, 0xed, 0x38, 0xf2, 0x87, 0xe5, 
    0x27, 0x36, 0x87, 0xe5, 0x25, 0x32, 0x78, 0x1a, 0xda, 0xcd, 
    0x5d, 0x74, 0xe6, 0xf6, 0x2a, 0x7b, 0xd2, 0x57, 0x76, 0x48, 
    0xe5, 0x26, 0x6b, 0x86, 0x70, 0x86, 0x56, 0xe3, 0x6a, 0xd7, 
    0x12, 0x60, 0xce, 0x26, 0x16, 0x60, 0xea, 0x26, 0xe9, 0x9f, 
    0x15, 0xd9, 0x00, 0x00, 0x00, 0x00, 0x00, 0x00, 0x00, 0x00, 
    0x01, 0x00, 0x00, 0x00, 0x01, 0x00, 0x00, 0x00, 0x01, 0x00, 
    0x00, 0x00, 0x00, 0x00, 0x00, 0x00, 0x00, 0x00, 0x00, 0x00, 
    0x01, 0x00, 0x00, 0x00, 0x39, 0xda, 0x11, 0x7f, 0x2c, 0x42, 
    0xe4, 0x4b, 0xb8, 0xe0, 0x90, 0xd0, 0xbb, 0x18, 0x04, 0xc2, 
    0x7b, 0x8f, 0x86, 0x4d, 0xa5, 0x8d, 0xa6, 0x50, 0xa9, 0x8d, 
    0x86, 0x40, 0x56, 0x72, 0x79, 0xbf, 0xe5, 0x18, 0x44, 0x8b, 
    0x1d, 0x18, 0xd4, 0x81, 0xa8, 0xed, 0xc3, 0x76, 0x96, 0x3b, 
    0xd8, 0x31, 0x74, 0x15, 0x2c, 0x58, 0x46, 0xf5, 0x3e, 0x55, 
    0x46, 0x55, 0x3c, 0x55, 0xb9, 0xaa, 0xc3, 0xaa, 0xcf, 0xa1, 
    0xf7, 0x76, 0x8d, 0x9c, 0xef, 0x9a, 0xde, 0x2b, 0x7a, 0x49, 
    0xc1, 0xc1, 0x38, 0xc8, 0x63, 0x45, 0x42, 0xeb, 0x67, 0x8d, 
    0xb7, 0x79, 0x67, 0x85, 0x32, 0x79, 0x98, 0x7a, 0xcd, 0x86, 
    0x05, 0xc0, 0xc6, 0xa4, 0xd0, 0xb0, 0x70, 0xd0, 0xed, 0x54, 
    0xea, 0x94, 0xf4, 0xaa, 0x1d, 0x75, 0x91, 0x86, 0x3e, 0x6e, 
    0x1c, 0xeb, 0x0e, 0x6e, 0x94, 0xeb, 0x2e, 0x6e, 0x6b, 0x14, 
    0xd1, 0x91, 0x6a, 0xde, 0x6a, 0xcb, 0x82, 0x57, 0xf1, 0x95, 
    0x49, 0xff, 0xe4, 0xf4, 0xd4, 0x20, 0xcc, 0xbd, 0x2c, 0xa4, 
    0x80, 0x77, 0x05, 0x0c, 0xdb, 0xbe, 0x05, 0x0c, 0xd9, 0x3e, 
    0xfa, 0xf3, 0x26, 0xc1, 0x9f, 0x92, 0x00, 0x8b, 0x5c, 0xeb, 
    0x6a, 0xd2, 0x90, 0xab, 0x56, 0x2a, 0xf7, 0xc0, 0x64, 0x11, 
    0xc6, 0xbc, 0x97, 0x60, 0x90, 0xbc, 0x54, 0x40, 0x90, 0xbc, 
    0x54, 0x40, 0x6f, 0x43, 0xab, 0xbf, 0x8a, 0xc4, 0xce, 0x3f, 
    0xae, 0x5b, 0xc5, 0x96, 0x94, 0xa0, 0x67, 0xa2, 0xc7, 0x75, 
    0x8d, 0x84, 0x30, 0xdb, 0xa1, 0x8b, 0x4e, 0xfb, 0xe1, 0xd8, 
    0x4e, 0xfb, 0xa1, 0x88, 0xb1, 0x04, 0x5e, 0x77, 0x8a, 0x55, 
    0xbf, 0xfb, 0x04, 0xfe, 0x21, 0x99, 0x89, 0xbe, 0x4a, 0x99, 
    0xb5, 0x42, 0x06, 0x84, 0xbc, 0xe0, 0xf0, 0xfc, 0x85, 0x00, 
    0x05, 0xc3, 0x85, 0x00, 0x04, 0xc3, 0x7a, 0xff, 0xfb, 0x3c, 
    0x00, 0x00, 0x00, 0x00, 0x01, 0x00, 0x00, 0x00, 0x01, 0x00, 
    0x00, 0x00, 0x00, 0x00, 0x00, 0x00, 0x01, 0x00, 0x00, 0x00, 
    0x01, 0x00, 0x00, 0x00, 0x01, 0x00, 0x00, 0x00, 0x00, 0x00, 
    0x00, 0x00, 0x22, 0xda, 0x8d, 0x48, 0xe1, 0x99, 0x28, 0x49, 
    0x90, 0x69, 0x60, 0xbe, 0xc5, 0x88, 0x99, 0x9a, 0x1f, 0x3a, 
    0x78, 0xf0, 0xcb, 0x31, 0x68, 0xc3, 0xcb, 0x31, 0x68, 0xc1, 
    0x34, 0xce, 0x97, 0x3e, 0x34, 0xff, 0xe7, 0x3a, 0xe6, 0xe1, 
    0xff, 0xe7, 0xaf, 0x75, 0x3d, 0xb9, 0x2a, 0x06, 0x5b, 0xae, 
    0x87, 0x59, 0x16, 0xd3, 0xc3, 0x4c, 0x37, 0x53, 0xc3, 0x4c, 
    0x37, 0xd3, 0x3c, 0xb3, 0xc8, 0x2c, 0x08, 0xdd, 0x74, 0x06, 
    0x33, 0xf9, 0x61, 0xcc, 0x7c, 0x79, 0xfd, 0x3a, 0x6d, 0x4a, 
    0x40, 0xb5, 0xea, 0xf0, 0x78, 0x98, 0xec, 0xda, 0x3d, 0xaa, 
    0xec, 0xda, 0x3d, 0xaa, 0x13, 0x25, 0xc2, 0x55, 0xf2, 0x87, 
    0x14, 0x8b, 0xb6, 0x29, 0x44, 0xe1, 0xb1, 0x10, 0x9b, 0x13, 
    0x2f, 0xae, 0xb6, 0x63, 0x8f, 0x8c, 0xce, 0xab, 0x4e, 0x0f, 
    0x12, 0xab, 0x4f, 0x0c, 0x92, 0xab, 0xb0, 0xf3, 0x6d, 0x54, 
    0x55, 0x95, 0x9b, 0x2a, 0xf5, 0x17, 0xd0, 0x79, 0x5c, 0xc5, 
    0x3a, 0xbe, 0xae, 0xf6, 0xb2, 0x68, 0x0a, 0x20, 0xc8, 0xd6, 
    0x08, 0xc2, 0xcb, 0x68, 0x0a, 0xc0, 0xcb, 0x68, 0xf5, 0x3f, 
    0x34, 0x97, 0x4c, 0x52, 0x17, 0x9b, 0x91, 0xcb, 0x84, 0x19, 
    0x7e, 0x61, 0x1a, 0x45, 0x0b, 0x1f, 0x6c, 0x8a, 0xb4, 0x03, 
    0xb9, 0x8f, 0x95, 0xa3, 0xba, 0x8d, 0x95, 0x23, 0xba, 0x8d, 
    0x6a, 0xdc, 0x45, 0x72, 0x0d, 0xf0, 0x5b, 0x74, 0xe2, 0x5a, 
    0x5b, 0xd0, 0x7b, 0x9b, 0x64, 0xe8, 0xb5, 0xbf, 0x72, 0x25, 
    0xba, 0xd7, 0x2a, 0x2c, 0xbf, 0xa5, 0xc1, 0xfc, 0xbf, 0xa7, 
    0x40, 0x7c, 0x40, 0x58, 0xbf, 0x83, 0x00, 0xbc, 0xc0, 0xc5, 
    0xfc, 0xcc, 0x87, 0xf6, 0x82, 0xdb, 0x7f, 0x04, 0x38, 0xbe, 
    0x87, 0xee, 0xae, 0x59, 0xc0, 0x5a, 0x3c, 0x5d, 0xc8, 0x56, 
    0x3c, 0x5d, 0xc8, 0x5e, 0xc3, 0xa2, 0x37, 0xa1, 0x00, 0x00, 
    0x00, 0x00, 0x01, 0x00, 0x00, 0x00, 0x01, 0x00, 0x00, 0x00, 
    0x00, 0x00, 0x00, 0x00, 0x01, 0x00, 0x00, 0x00, 0x01, 0x00, 
    0x00, 0x00, 0x01, 0x00, 0x00, 0x00, 0x00, 0x00, 0x00, 0x00, 
    0xc1, 0x7c, 0xa3, 0x86, 0x61, 0x37, 0x8d, 0xb0, 0xf0, 0xb9, 
    0x6b, 0x2c, 0x31, 0xfa, 0xdf, 0xe6, 0x75, 0xbd, 0x0e, 0x31, 
    0xb9, 0xb9, 0x9b, 0x20, 0xf1, 0xb9, 0x9f, 0x20, 0x0e, 0x46, 
    0x60, 0xdf, 0xd2, 0x5e, 0xd3, 0xa5, 0xd5, 0xf2, 0xc8, 0xef, 
    0xb3, 0x18, 0x09, 0x91, 0xaf, 0x4b, 0x40, 0x3b, 0x7a, 0xd1, 
    0x73, 0xfb, 0x6e, 0x19, 0xf5, 0xe1, 0x7e, 0x19, 0xf5, 0xe1, 
    0x81, 0xe6, 0x0a, 0x1e, 0x2a, 0x1e, 0x4e, 0x81, 0x9c, 0xf4, 
    0x27, 0x36, 0x19, 0xba, 0xea, 0x28, 0x92, 0x1e, 0x34, 0x6b, 
    0xfb, 0x5b, 0x58, 0x2e, 0x62, 0xaa, 0x3a, 0x34, 0x62, 0xaa, 
    0x38, 0x34, 0x9d, 0x55, 0xc7, 0xcb, 0x89, 0x87, 0xa7, 0x3b, 
    0xd6, 0x28, 0x54, 0xee, 0x3d, 0x26, 0x3d, 0x67, 0x47, 0x88, 
    0xe6, 0x9a, 0xf4, 0x5a, 0x1a, 0x10, 0x27, 0xc0, 0x16, 0x9a, 
    0x27, 0x48, 0x16, 0x9a, 0xd8, 0xb7, 0xe9, 0x65, 0x82, 0x75, 
    0x6c, 0xad, 0xd8, 0xfe, 0x32, 0x42, 0x39, 0x26, 0x17, 0x9b, 
    0x35, 0xf4, 0x6d, 0x26, 0x45, 0x9f, 0x6b, 0x5c, 0x50, 0x1d, 
    0x22, 0x55, 0x50, 0x1d, 0x62, 0x45, 0xaf, 0xe2, 0x9d, 0xba, 
    0x1d, 0x4e, 0xf8, 0xcb, 0x37, 0x49, 0x44, 0xcd, 0x29, 0xe3, 
    0xf8, 0xfd, 0xa3, 0x23, 0x64, 0x27, 0x05, 0x49, 0xee, 0x3e, 
    0xa5, 0x26, 0xec, 0x5f, 0xa5, 0x26, 0xec, 0x5f, 0x5a, 0xd9, 
    0x13, 0xa0, 0xcb, 0xf5, 0x5a, 0xd2, 0x63, 0xec, 0xfb, 0xba, 
    0x79, 0x40, 0x19, 0x76, 0xcc, 0xed, 0x49, 0x94, 0x2f, 0x43, 
    0x01, 0x61, 0xa5, 0x45, 0x27, 0x76, 0xa5, 0x45, 0x07, 0x72, 
    0x5a, 0xba, 0xf8, 0x8d, 0xdc, 0x78, 0x48, 0xb6, 0x79, 0xf7, 
    0x3f, 0x87, 0x1c, 0xb1, 0x2c, 0xc6, 0xef, 0x6c, 0x62, 0x37, 
    0x05, 0x08, 0xe7, 0xcc, 0xe5, 0x08, 0xae, 0x81, 0xc5, 0x08, 
    0xae, 0x84, 0x3a, 0xf7, 0x51, 0x7b, 0x00, 0x00, 0x00, 0x00, 
    0x01, 0x00, 0x00, 0x00, 0x00, 0x00, 0x00, 0x00, 0x01, 0x00, 
    0x00, 0x00, 0x01, 0x00, 0x00, 0x00, 0x00, 0x00, 0x00, 0x00, 
    0x01, 0x00, 0x00, 0x00, 0x00, 0x00, 0x00, 0x00, 0x6a, 0x83, 
    0xce, 0x4a, 0xa5, 0x2a, 0xf8, 0xbb, 0x6d, 0x45, 0x91, 0x4d, 
    0x62, 0x8a, 0xd2, 0xb0, 0x02, 0xbc, 0x85, 0xc4, 0x53, 0x0a, 
    0x16, 0x59, 0x53, 0x08, 0x96, 0x59, 0xac, 0xf7, 0x69, 0xa6, 
    0xe9, 0x7e, 0xd1, 0x6c, 0x31, 0x53, 0x3f, 0xf9, 0xdd, 0x63, 
    0x8c, 0x31, 0x2f, 0xb4, 0xaf, 0xe2, 0x85, 0x43, 0x81, 0x3e, 
    0xd5, 0x66, 0x29, 0x6a, 0xd5, 0x66, 0x29, 0x6a, 0x2a, 0x99, 
    0xd6, 0x95, 0x01, 0xea, 0x7a, 0x41, 0x90, 0x79, 0xdd, 0x28, 
    0x88, 0x12, 0x58, 0x28, 0x7f, 0x3c, 0x30, 0x76, 0xdd, 0x22, 
    0x71, 0x46, 0x5a, 0x22, 0xb3, 0x74, 0x5e, 0x22, 0x31, 0x64, 
    0xa1, 0xdd, 0xce, 0x9b, 0xc9, 0x34, 0x49, 0xe9, 0x23, 0x17, 
    0xa7, 0xe5, 0xe2, 0x03, 0x60, 0xb3, 0x65, 0x24, 0x24, 0xf8, 
    0x79, 0xeb, 0xa9, 0xf0, 0x08, 0xe3, 0x05, 0xfa, 0x48, 0xe3, 
    0x05, 0xf8, 0xb7, 0x1c, 0xfa, 0x07, 0xb7, 0x5f, 0x5f, 0x26, 
    0x52, 0xde, 0x36, 0x18, 0x87, 0x3d, 0x4d, 0xc4, 0x84, 0x61, 
    0x2e, 0x5b, 0xfa, 0x02, 0x43, 0xae, 0x1e, 0xa7, 0x0a, 0xa6, 
    0x9e, 0xa7, 0x0a, 0xa4, 0x61, 0x58, 0xf5, 0x5b, 0xce, 0x40, 
    0xf0, 0xe3, 0x30, 0xb1, 0x0d, 0xca, 0xdc, 0x63, 0x69, 0x1a, 
    0xf1, 0x3c, 0x88, 0x5a, 0xd1, 0xd1, 0xde, 0x33, 0xa0, 0x71, 
    0xac, 0x82, 0xb0, 0x71, 0x8c, 0x82, 0x4f, 0x8e, 0x73, 0x7d, 
    0x15, 0x7e, 0x14, 0x61, 0x32, 0x62, 0x14, 0x08, 0x5b, 0x91, 
    0x64, 0x3b, 0xdc, 0x7c, 0x64, 0x6c, 0x09, 0x92, 0xf0, 0xda, 
    0x2d, 0x56, 0x64, 0xfc, 0x0d, 0x56, 0x66, 0xfc, 0xf2, 0xa9, 
    0x9b, 0x03, 0x1e, 0x93, 0xf3, 0x4c, 0xd4, 0x2c, 0x98, 0xa2, 
    0x8f, 0xfd, 0x9a, 0xd3, 0xc8, 0xe7, 0x9f, 0x9e, 0xb1, 0x14, 
    0x6b, 0x98, 0x21, 0x14, 0x0b, 0x08, 0x31, 0x14, 0x0b, 0x08, 
    0xce, 0xeb, 0xf4, 0xf7, 0x00, 0x00, 0x00, 0x00, 0x00, 0x00, 
    0x00, 0x00, 0x00, 0x00, 0x00, 0x00, 0x00, 0x00, 0x00, 0x00, 
    0x00, 0x00, 0x00, 0x00, 0x01, 0x00, 0x00, 0x00, 0x01, 0x00, 
    0x00, 0x00, 0x00, 0x00, 0x00, 0x00, 0xb2, 0x73, 0xc5, 0x06, 
    0xe6, 0xce, 0xd2, 0xe7, 0xd5, 0x7d, 0xf1, 0x55, 0xcc, 0xd9, 
    0xf2, 0x91, 0xeb, 0x6e, 0x04, 0x02, 0x80, 0x64, 0xf3, 0x52, 
    0xc0, 0x64, 0xf3, 0x12, 0x3f, 0x9b, 0x0c, 0xed, 0x03, 0x29, 
    0xfb, 0x5d, 0xa6, 0x30, 0xd7, 0x96, 0xb2, 0xa5, 0xfa, 0x9d, 
    0x80, 0x2c, 0xef, 0xed, 0xee, 0x93, 0x9c, 0x89, 0xa6, 0xf7, 
    0x95, 0x9b, 0xa6, 0xb7, 0x95, 0x8b, 0x59, 0x48, 0x6a, 0x74, 
    0x89, 0x28, 0x26, 0xa3, 0x73, 0xd3, 0xf4, 0xd6, 0x55, 0xce, 
    0x4b, 0xcb, 0x6a, 0x2e, 0x64, 0x64, 0x16, 0x4e, 0xb1, 0xd0, 
    0xb6, 0xed, 0xba, 0xdc, 0xb6, 0xee, 0xba, 0xdc, 0x49, 0x11, 
    0x45, 0x23, 0x4c, 0x0c, 0x8e, 0x70, 0x70, 0x4a, 0x53, 0x5e, 
    0x52, 0xeb, 0x38, 0xf2, 0xb9, 0x4f, 0x91, 0xee, 0x4a, 0xff, 
    0x4a, 0xa8, 0x8c, 0xee, 0x80, 0xea, 0x0c, 0xee, 0x80, 0xea, 
    0xf3, 0x11, 0x7f, 0x15, 0xbd, 0x66, 0xe5, 0x4a, 0xf7, 0x6d, 
    0xa2, 0xbe, 0xfe, 0x87, 0xc1, 0xc9, 0x24, 0xa4, 0x7e, 0xb3, 
    0x68, 0x06, 0xda, 0xad, 0xa0, 0x17, 0x52, 0xa9, 0xa4, 0x06, 
    0x52, 0xa9, 0x5b, 0xf9, 0xad, 0x56, 0xad, 0xe7, 0x3e, 0x5e, 
    0x0b, 0x9c, 0xcf, 0x74, 0xb4, 0x32, 0x8e, 0x88, 0xb6, 0x76, 
    0x89, 0xf5, 0x85, 0x7f, 0x0a, 0x0f, 0x14, 0xb2, 0x29, 0x5f, 
    0x14, 0xb6, 0x29, 0x5f, 0xeb, 0x49, 0xd6, 0xa0, 0x1f, 0x48, 
    0x4b, 0xac, 0x49, 0x5b, 0xcb, 0x12, 0x6d, 0xc2, 0xda, 0x96, 
    0x7c, 0xda, 0xfb, 0xbe, 0xd6, 0xf8, 0xaa, 0xfe, 0x53, 0x7a, 
    0xe2, 0xfe, 0x5b, 0xfa, 0xea, 0xfe, 0xa4, 0x05, 0x15, 0x01, 
    0x9a, 0xc6, 0xf6, 0x49, 0x9c, 0x36, 0x7c, 0xe7, 0xc6, 0x33, 
    0x73, 0xd3, 0xf4, 0x03, 0xe3, 0x48, 0x56, 0x5d, 0x55, 0x1f, 
    0x54, 0x13, 0x8f, 0xbe, 0x54, 0x13, 0x87, 0x9e, 0xab, 0xec, 
    0x78, 0x61, 0x00, 0x00, 0x00, 0x00, 0x01, 0x00, 0x00, 0x00, 
    0x00, 0x00, 0x00, 0x00, 0x01, 0x00, 0x00, 0x00, 0x01, 0x00, 
    0x00, 0x00, 0x00, 0x00, 0x00, 0x00, 0x01, 0x00, 0x00, 0x00, 
    0x00, 0x00, 0x00, 0x00, 0x40, 0x6a, 0xf8, 0x06, 0xc9, 0xa9, 
    0xdd, 0x4b, 0x2f, 0x50, 0x9c, 0x1a, 0xeb, 0xb6, 0x24, 0xa9, 
    0x73, 0xa2, 0xb0, 0x68, 0xbd, 0x82, 0xbc, 0x2c, 0xbf, 0x82, 
    0xbc, 0x2c, 0x40, 0x7d, 0x43, 0xd3, 0xac, 0xfb, 0x7d, 0x7c, 
    0x66, 0x6e, 0xe5, 0x0c, 0x97, 0xc8, 0x05, 0x2b, 0xcd, 0x02, 
    0xdf, 0xf0, 0xcc, 0x43, 0x82, 0xbc, 0x89, 0x4a, 0xe7, 0xb1, 
    0x8d, 0x4a, 0xc7, 0xb1, 0x72, 0xb5, 0x38, 0x4e, 0x08, 0x40, 
    0x79, 0x74, 0x29, 0x9f, 0xbc, 0xb2, 0x4f, 0x81, 0x63, 0x49, 
    0x1f, 0xb6, 0x70, 0x5b, 0x88, 0xe2, 0x47, 0x8e, 0xe8, 0xe0, 
    0x04, 0xa2, 0xec, 0xe0, 0x04, 0xa2, 0x13, 0x1f, 0xfb, 0x5d, 
    0x5e, 0xe2, 0x0d, 0x6e, 0x8f, 0x54, 0x00, 0x39, 0x79, 0x88, 
    0x5f, 0x96, 0xa3, 0x30, 0xaa, 0x8b, 0x11, 0x56, 0xba, 0xf5, 
    0x20, 0xe6, 0x3a, 0x4e, 0x20, 0xf6, 0xba, 0x4f, 0xdf, 0x09, 
    0x45, 0xb0, 0x61, 0x3a, 0x89, 0x85, 0x99, 0x15, 0x41, 0x4b, 
    0xea, 0x2f, 0xa1, 0x35, 0xba, 0x23, 0xe2, 0xd8, 0x0a, 0x43, 
    0xa9, 0xc6, 0x68, 0x21, 0xa9, 0xd4, 0x6a, 0x23, 0xa9, 0xd0, 
    0x95, 0xdc, 0x56, 0x2f, 0x22, 0x82, 0x8d, 0xa1, 0x5f, 0xd8, 
    0xc0, 0x9f, 0x61, 0x63, 0x1b, 0xe4, 0x7c, 0x40, 0xa1, 0x32, 
    0xbf, 0x0f, 0x79, 0x56, 0x3f, 0x4e, 0x19, 0x22, 0x3f, 0x4e, 
    0x19, 0x26, 0xc0, 0xb1, 0xe6, 0xd9, 0x73, 0x1c, 0x55, 0xa0, 
    0x61, 0xdd, 0xe3, 0x4b, 0x97, 0xb1, 0xe1, 0x31, 0x26, 0xd5, 
    0xfb, 0xaa, 0x86, 0x65, 0x41, 0xab, 0x82, 0xcc, 0xc2, 0x3b, 
    0x82, 0xcc, 0x83, 0x3b, 0x7d, 0x33, 0x3c, 0xc4, 0x81, 0xa5, 
    0xf5, 0xe1, 0x9a, 0x9d, 0xba, 0x62, 0x10, 0xf7, 0xcd, 0x1f, 
    0x63, 0x15, 0x35, 0x79, 0x23, 0x09, 0xf8, 0x18, 0x69, 0x59, 
    0xfc, 0x58, 0x63, 0x59, 0xfc, 0x58, 0x9c, 0xa6, 0x03, 0xa7, 
    0x01, 0x00, 0x00, 0x00, 0x00, 0x00, 0x00, 0x00, 0x00, 0x00, 
    0x00, 0x00, 0x00, 0x00, 0x00, 0x00, 0x01, 0x00, 0x00, 0x00, 
    0x01, 0x00, 0x00, 0x00, 0x01, 0x00, 0x00, 0x00, 0x00, 0x00, 
    0x00, 0x00, 0x04, 0x3b, 0x3b, 0xd4, 0x29, 0xf6, 0x00, 0x55, 
    0x52, 0xb9, 0x1d, 0x70, 0x46, 0x8d, 0x66, 0xdd, 0x55, 0xab, 
    0xa6, 0x7f, 0x50, 0xb1, 0xee, 0xff, 0x10, 0xa1, 0xee, 0xff, 
    0xef, 0x5e, 0x11, 0x00, 0x76, 0x2a, 0x8b, 0x86, 0x12, 0x2c, 
    0xb8, 0x77, 0x7a, 0xc5, 0x6d, 0x83, 0x79, 0x58, 0x39, 0x84, 
    0x86, 0xc4, 0x99, 0x4e, 0x3c, 0xb4, 0xd4, 0x40, 0x3c, 0xb4, 
    0x94, 0x40, 0xc3, 0x4b, 0x6b, 0xbf, 0x01, 0xe4, 0x14, 0x40, 
    0x64, 0xa1, 0x03, 0x58, 0xa7, 0x78, 0x65, 0x9b, 0x20, 0xd0, 
    0x0e, 0x64, 0xd5, 0xdf, 0x5f, 0x88, 0x65, 0xfe, 0x6b, 0xa5, 
    0x65, 0xfe, 0x6f, 0xa5, 0x9a, 0x01, 0x90, 0x5a, 0x44, 0x37, 
    0xeb, 0xcf, 0xf0, 0x23, 0x0a, 0x0c, 0x55, 0xce, 0x91, 0x22, 
    0xf7, 0xdd, 0xc8, 0x4e, 0xa7, 0xfa, 0x08, 0xaf, 0x9f, 0xd5, 
    0x48, 0xd0, 0xb7, 0xdd, 0x48, 0xdd, 0x48, 0x22, 0xb7, 0x22, 
    0xf6, 0x4d, 0x6d, 0x15, 0x05, 0xdb, 0x34, 0xb2, 0xa6, 0x73, 
    0xa1, 0x01, 0x0c, 0x6e, 0x35, 0xd6, 0x58, 0x18, 0x80, 0x9c, 
    0x4a, 0x08, 0x08, 0xb4, 0x48, 0x08, 0x08, 0xb4, 0xb7, 0xf7, 
    0xf7, 0x4b, 0xd8, 0x1a, 0xc3, 0x7b, 0xd2, 0x74, 0x64, 0x21, 
    0x0b, 0xc6, 0xd6, 0xb0, 0x68, 0x2a, 0xf3, 0xab, 0x74, 0x17, 
    0x59, 0x69, 0x7c, 0x12, 0x88, 0xeb, 0x7c, 0x12, 0x98, 0xeb, 
    0x83, 0xed, 0x67, 0x14, 0xd8, 0x4e, 0xad, 0x85, 0x03, 0xda, 
    0x33, 0x63, 0xf3, 0x94, 0xdb, 0x23, 0xe1, 0x5d, 0x5f, 0x21, 
    0x7b, 0xfd, 0x27, 0x1d, 0xec, 0x95, 0x1f, 0x53, 0xf9, 0x95, 
    0x1f, 0x43, 0x06, 0x6a, 0xe0, 0xbc, 0x41, 0x9e, 0x3d, 0x77, 
    0xc5, 0x9e, 0x5d, 0xba, 0x2b, 0x53, 0x0d, 0xae, 0xda, 0x92, 
    0x81, 0x9c, 0x8a, 0xd6, 0x4b, 0xcb, 0xc6, 0x99, 0x46, 0xac, 
    0xc6, 0x9d, 0x47, 0xac, 0x39, 0x62, 0xb8, 0x53, 0x00, 0x00, 
    0x00, 0x00, 0x00, 0x00, 0x00, 0x00, 0x00, 0x00, 0x00, 0x00, 
    0x00, 0x00, 0x00, 0x00, 0x00, 0x00, 0x00, 0x00, 0x01, 0x00, 
    0x00, 0x00, 0x00, 0x00, 0x00, 0x00, 0x01, 0x00, 0x00, 0x00, 
    0x82, 0x87, 0x45, 0x45, 0x86, 0xdc, 0xb9, 0xe2, 0xca, 0x9b, 
    0x84, 0xbb, 0x09, 0x78, 0x1b, 0xcf, 0x21, 0x2d, 0x2f, 0x53, 
    0x85, 0xbe, 0x3e, 0xfb, 0x81, 0xbd, 0x3e, 0xfb, 0x7e, 0x42, 
    0xc1, 0x04, 0xbb, 0x16, 0xd2, 0x57, 0x65, 0xb9, 0xde, 0x74, 
    0x57, 0x17, 0xea, 0x24, 0x58, 0xf8, 0xb5, 0x62, 0x82, 0x5b, 
    0x05, 0xbd, 0x97, 0x47, 0x64, 0x21, 0x93, 0x53, 0xe0, 0x21, 
    0x6c, 0xac, 0x1f, 0xde, 0xee, 0x00, 0x50, 0x14, 0x63, 0xc9, 
    0x80, 0xb5, 0xb0, 0x6c, 0x69, 0xfb, 0xcb, 0x54, 0xb3, 0x52, 
    0x28, 0xa1, 0xde, 0x66, 0x32, 0x71, 0xa0, 0x52, 0x22, 0x71, 
    0xa0, 0x52, 0xdd, 0x8e, 0x5f, 0xad, 0xae, 0x05, 0xf3, 0x7e, 
    0x6e, 0x99, 0x69, 0xfa, 0x86, 0x04, 0xe6, 0x7f, 0xe1, 0xd1, 
    0xdc, 0x00, 0x97, 0xd8, 0x6d, 0x5f, 0xc5, 0x5f, 0x48, 0x5f, 
    0x85, 0x5d, 0x48, 0x5f, 0x7a, 0xa2, 0xb7, 0xa0, 0xb9, 0x99, 
    0xd9, 0x4d, 0xbe, 0x56, 0xd4, 0xca, 0x76, 0xad, 0xf8, 0x9e, 
    0xc1, 0xdd, 0x99, 0x0f, 0x7d, 0xb7, 0x3b, 0xa6, 0x75, 0x3f, 
    0x7e, 0xb7, 0x75, 0xbf, 0x7b, 0xb7, 0x8a, 0x40, 0x84, 0x48, 
    0x6f, 0x69, 0x1f, 0x7b, 0x05, 0xa6, 0xe5, 0xe7, 0xff, 0x7d, 
    0x1a, 0x65, 0x1b, 0x25, 0x26, 0xee, 0xce, 0xb0, 0x18, 0x5a, 
    0xde, 0xb1, 0x39, 0xc5, 0xde, 0xb1, 0x1b, 0xcc, 0x21, 0x4e, 
    0xe4, 0x33, 0xcd, 0xac, 0x03, 0xb1, 0xef, 0xa5, 0xb5, 0x90, 
    0x7b, 0xfb, 0x12, 0xf4, 0x7b, 0x35, 0xf6, 0x33, 0x97, 0xb3, 
    0x55, 0x29, 0x61, 0xb3, 0x55, 0x31, 0x61, 0xb1, 0x55, 0x31, 
    0x9e, 0x4e, 0xaa, 0xce, 0xf5, 0x1b, 0xc8, 0xed, 0x32, 0x8b, 
    0xa8, 0x53, 0x22, 0x96, 0x56, 0x3a, 0x40, 0x49, 0x7e, 0x5e, 
    0xb5, 0x20, 0x0f, 0x18, 0x86, 0x50, 0x2a, 0x2a, 0x86, 0x50, 
    0x2a, 0x3a, 0x79, 0xaf, 0xd5, 0xc5, 0x00, 0x00, 0x00, 0x00, 
    0x01, 0x00, 0x00, 0x00, 0x01, 0x00, 0x00, 0x00, 0x01, 0x00, 
    0x00, 0x00, 0x00, 0x00, 0x00, 0x00, 0x01, 0x00, 0x00, 0x00, 
    0x00, 0x00, 0x00, 0x00, 0x01, 0x00, 0x00, 0x00, 0x9d, 0xe1, 
    0x7a, 0x57, 0x02, 0xc3, 0x96, 0x40, 0xd8, 0x31, 0x97, 0x0e, 
    0x76, 0x69, 0xd4, 0xa8, 0x12, 0x56, 0x5b, 0xad, 0x30, 0x74, 
    0x1c, 0x8a, 0x30, 0x74, 0x1d, 0x88, 0xcf, 0x8b, 0xe2, 0x77, 
    0x77, 0xa3, 0x56, 0x23, 0x21, 0x03, 0xc4, 0xa9, 0x27, 0xdd, 
    0x3d, 0x7e, 0x29, 0xa5, 0xca, 0xc6, 0x84, 0x4a, 0xda, 0x5a, 
    0xa4, 0xe4, 0xd6, 0xca, 0xa4, 0xe4, 0xd6, 0xca, 0x5b, 0x1b, 
    0x29, 0x35, 0xd3, 0x77, 0x5a, 0x14, 0x6a, 0x59, 0xdc, 0xaf, 
    0x98, 0xda, 0x97, 0x10, 0x8b, 0xa1, 0x8c, 0xf0, 0xe1, 0x38, 
    0xaf, 0xa4, 0x81, 0xa7, 0xce, 0xe4, 0x81, 0xa6, 0x8e, 0xe4, 
    0x7e, 0x59, 0x71, 0x1b, 0x03, 0x43, 0x26, 0x3e, 0x29, 0xd6, 
    0xff, 0x60, 0x8b, 0x94, 0x72, 0x6c, 0x6c, 0xbe, 0x62, 0xfc, 
    0x51, 0xa6, 0x3d, 0x62, 0x48, 0xab, 0x2d, 0xfe, 0x48, 0xab, 
    0x2d, 0xfe, 0xb7, 0x54, 0xd2, 0x01, 0x2d, 0xa6, 0xdd, 0xf0, 
    0x2a, 0x9a, 0xe3, 0x81, 0x8e, 0xe1, 0xf4, 0x42, 0x21, 0x10, 
    0x66, 0x6b, 0xdd, 0xb5, 0x8e, 0x4c, 0x0e, 0x51, 0xcf, 0x72, 
    0x0c, 0x71, 0xce, 0x72, 0xf3, 0x8e, 0x31, 0x8d, 0x71, 0x03, 
    0xba, 0xc5, 0xc6, 0x42, 0xfe, 0xd4, 0xcc, 0x04, 0xb4, 0xd3, 
    0x12, 0x99, 0xc5, 0x99, 0x58, 0x45, 0x3f, 0xe8, 0x99, 0xd9, 
    0x1e, 0x59, 0x99, 0xcd, 0x9e, 0xd9, 0x66, 0x32, 0x61, 0x26, 
    0x55, 0x01, 0xf8, 0xf1, 0xe3, 0x4e, 0xf6, 0x6d, 0x4e, 0x27, 
    0xdf, 0x75, 0xb9, 0x69, 0x06, 0x99, 0x70, 0x84, 0x4a, 0x6a, 
    0x36, 0xa6, 0x43, 0x6c, 0x34, 0x84, 0x42, 0x6c, 0xcb, 0x7b, 
    0xbd, 0x93, 0x9e, 0x8f, 0xcb, 0xd2, 0xf9, 0x3a, 0xe5, 0x16, 
    0x75, 0x34, 0x7b, 0xd0, 0x46, 0x4e, 0xfc, 0x82, 0xea, 0xab, 
    0x23, 0x01, 0x4a, 0x39, 0x06, 0x02, 0x4a, 0x39, 0x26, 0x02, 
    0xb5, 0xc6, 0xd9, 0xfd, 0x00, 0x00, 0x00, 0x00, 0x00, 0x00, 
    0x00, 0x00, 0x01, 0x00, 0x00, 0x00, 0x01, 0x00, 0x00, 0x00, 
    0x01, 0x00, 0x00, 0x00, 0x00, 0x00, 0x00, 0x00, 0x00, 0x00, 
    0x00, 0x00, 0x01, 0x00, 0x00, 0x00, 0x55, 0xfe, 0x07, 0xbc, 
    0x1a, 0xd1, 0x1d, 0x62, 0xb7, 0xcb, 0xfb, 0xf2, 0x3a, 0xc4, 
    0xa8, 0xb2, 0x90, 0x25, 0x12, 0x25, 0x9e, 0xb4, 0x92, 0x69, 
    0x9e, 0xa5, 0x92, 0x69, 0x61, 0x5a, 0x6d, 0x96, 0x85, 0x2c, 
    0xb7, 0x43, 0xbb, 0x58, 0x0f, 0xf6, 0x49, 0x10, 0x36, 0x28, 
    0xc0, 0xde, 0xec, 0x29, 0x48, 0x46, 0xe7, 0x3f, 0x0c, 0x57, 
    0xa6, 0x3b, 0x08, 0x57, 0xa6, 0x3b, 0xf7, 0xa8, 0x59, 0xc4, 
    0x56, 0x88, 0x07, 0x77, 0x0d, 0x50, 0x41, 0x93, 0xa3, 0x6b, 
    0x26, 0x85, 0x6d, 0xd8, 0xdd, 0x7b, 0x00, 0xd0, 0xa7, 0x19, 
    0x8c, 0xa8, 0xc7, 0x89, 0x88, 0xa8, 0xc7, 0x89, 0x77, 0x57, 
    0x38, 0x76, 0x7a, 0x99, 0xee, 0x29, 0x21, 0x04, 0x71, 0x8f, 
    0x8a, 0x10, 0x3f, 0x6b, 0x7a, 0xe4, 0x8d, 0x74, 0x4f, 0x99, 
    0xa1, 0x71, 0x37, 0xcc, 0x1d, 0x60, 0x37, 0xcc, 0x9d, 0x60, 
    0xc8, 0x33, 0x62, 0x9f, 0x8c, 0x6c, 0xed, 0xb5, 0xa1, 0xb0, 
    0x6a, 0x75, 0xb2, 0x79, 0xac, 0xba, 0x4a, 0x50, 0x9c, 0x08, 
    0x34, 0x95, 0x21, 0x0c, 0x70, 0x99, 0xed, 0x8b, 0x70, 0x99, 
    0xed, 0x8b, 0x8f, 0x66, 0x12, 0x74, 0xd1, 0x4f, 0x29, 0xd6, 
    0x91, 0x18, 0xfb, 0x98, 0xc8, 0xfa, 0x08, 0x4c, 0xd9, 0x5f, 
    0x17, 0x7e, 0x2d, 0x81, 0x9b, 0x9c, 0x9c, 0xa3, 0x13, 0x3d, 
    0x9c, 0xa3, 0x13, 0x3d, 0x63, 0x5c, 0xec, 0xc2, 0x7c, 0x6f, 
    0x6c, 0x95, 0xa4, 0xcf, 0xec, 0x02, 0x94, 0xa6, 0x86, 0xa3, 
    0x3f, 0x69, 0x96, 0x3d, 0x1a, 0xdd, 0xd0, 0xf1, 0x10, 0x84, 
    0xce, 0x21, 0x10, 0xc5, 0xce, 0x21, 0xef, 0x3a, 0x31, 0xde, 
    0x3f, 0xda, 0x87, 0x1f, 0x1e, 0xb6, 0x69, 0x34, 0x95, 0x1c, 
    0xd3, 0x67, 0xd6, 0xa0, 0x25, 0x98, 0x26, 0x1a, 0x4c, 0xb2, 
    0x02, 0x2a, 0x1f, 0xae, 0x06, 0x2a, 0x1d, 0xaa, 0xf9, 0xd5, 
    0xe2, 0x55, 0x00, 0x00, 0x00, 0x00, 0x00, 0x00, 0x00, 0x00, 
    0x01, 0x00, 0x00, 0x00, 0x01, 0x00, 0x00, 0x00, 0x01, 0x00, 
    0x00, 0x00, 0x01, 0x00, 0x00, 0x00, 0x01, 0x00, 0x00, 0x00, 
    0x00, 0x00, 0x00, 0x00, 0x89, 0x46, 0x8b, 0x02, 0xaf, 0x78, 
    0x3d, 0x9f, 0x52, 0xf3, 0xa6, 0x4a, 0xbd, 0xc3, 0x39, 0x7f, 
    0xc6, 0x6c, 0xd2, 0x95, 0xc8, 0x66, 0xf6, 0xfd, 0xc8, 0x66, 
    0xf6, 0xfd, 0x37, 0x99, 0x09, 0x02, 0xbe, 0x4b, 0xf3, 0xd7, 
    0x43, 0x58, 0x80, 0xf3, 0x0a, 0xeb, 0xd9, 0x24, 0x0e, 0x40, 
    0x2b, 0x68, 0x93, 0x12, 0x7f, 0xf6, 0x96, 0x19, 0x2f, 0xd5, 
    0x96, 0x13, 0x2d, 0xf6, 0x69, 0xec, 0xd2, 0x09, 0xea, 0xb8, 
    0x07, 0x8e, 0x3d, 0xea, 0x71, 0x6b, 0x94, 0x2e, 0xf6, 0x1c, 
    0xaf, 0x90, 0xd5, 0xd7, 0x15, 0x78, 0x1c, 0x9d, 0xa5, 0x18, 
    0x1e, 0xc9, 0xa5, 0x18, 0x1c, 0xcd, 0x5a, 0xe7, 0xe3, 0x32, 
    0xaa, 0x55, 0x62, 0x05, 0x0d, 0x14, 0xa6, 0x2a, 0x55, 0xbb, 
    0x99, 0x0e, 0x82, 0x86, 0xe7, 0x4a, 0xf7, 0x92, 0xe9, 0x4b, 
    0xa7, 0x71, 0xa9, 0x4b, 0xb7, 0x90, 0xa9, 0x4b, 0x48, 0x6f, 
    0x56, 0xb4, 0xe2, 0x3a, 0x02, 0x50, 0xb7, 0xed, 0x73, 0xf0, 
    0xee, 0x20, 0x1f, 0xf7, 0x41, 0x9b, 0xbb, 0x16, 0x96, 0x81, 
    0xe1, 0x5b, 0xe3, 0x82, 0x82, 0x5e, 0x43, 0x82, 0x83, 0x5e, 
    0xbc, 0x7d, 0x7c, 0xa1, 0xb3, 0x34, 0xda, 0x07, 0x6c, 0xdf, 
    0xc0, 0x69, 0x43, 0x40, 0xf8, 0x39, 0x54, 0xd2, 0x27, 0xaf, 
    0x11, 0x38, 0x3c, 0x06, 0xe0, 0x18, 0xb4, 0xae, 0xc0, 0x18, 
    0x34, 0xae, 0x3f, 0xe7, 0xcb, 0x51, 0xe7, 0xca, 0x17, 0x92, 
    0xd6, 0x51, 0x00, 0x27, 0xef, 0x54, 0x52, 0x97, 0xc3, 0xac, 
    0x98, 0x5b, 0xf0, 0x1f, 0xb9, 0x88, 0xfd, 0x76, 0xd1, 0xa3, 
    0xdd, 0x56, 0xd1, 0xa3, 0x22, 0xa9, 0x2e, 0x5c, 0xe6, 0x3b, 
    0x8a, 0xeb, 0x1e, 0x1b, 0x31, 0xf4, 0xd1, 0x84, 0x2b, 0x09, 
    0xbf, 0x71, 0xab, 0x4c, 0x86, 0x04, 0x64, 0x1b, 0x96, 0x30, 
    0xe5, 0x28, 0x86, 0x30, 0xe1, 0x28, 0x79, 0xcf, 0x1e, 0xd7, 
    0x00, 0x00, 0x00, 0x00, 0x01, 0x00, 0x00, 0x00, 0x01, 0x00, 
    0x00, 0x00, 0x01, 0x00, 0x00, 0x00, 0x00, 0x00, 0x00, 0x00, 
    0x00, 0x00, 0x00, 0x00, 0x00, 0x00, 0x00, 0x00, 0x01, 0x00, 
    0x00, 0x00, 0xad, 0x70, 0x07, 0x15, 0x41, 0xe2, 0xda, 0xf8, 
    0x5f, 0xfa, 0x29, 0x0b, 0x74, 0xd5, 0x70, 0x2e, 0x25, 0xac, 
    0xc1, 0xbe, 0x43, 0x9b, 0xc0, 0x84, 0x47, 0x99, 0xc0, 0x84, 
    0xb8, 0x66, 0x3f, 0x7b, 0x86, 0xe6, 0x84, 0x37, 0x13, 0xf4, 
    0x73, 0x2b, 0x32, 0x37, 0xa9, 0x86, 0x87, 0x2f, 0x4e, 0xd1, 
    0x53, 0x3d, 0xc6, 0x78, 0x53, 0xb7, 0x77, 0x7a, 0x53, 0x37, 
    0x77, 0x78, 0xac, 0xc8, 0x88, 0x87, 0x2c, 0x1e, 0xe1, 0xfa, 
    0xb6, 0xbb, 0x93, 0x32, 0x33, 0xe2, 0x1a, 0xe0, 0x14, 0x80, 
    0xe5, 0xa4, 0x1d, 0x92, 0x2a, 0x11, 0x5c, 0xba, 0x49, 0x29, 
    0x5c, 0xb2, 0x49, 0x29, 0xa3, 0x4d, 0xb6, 0xd6, 0x04, 0xd3, 
    0x44, 0x0e, 0x03, 0x98, 0x01, 0x01, 0xec, 0xf0, 0xf4, 0xb8, 
    0xc3, 0x81, 0x00, 0x66, 0xbc, 0x34, 0x46, 0xcf, 0x51, 0x01, 
    0x17, 0x0f, 0xd1, 0x21, 0x16, 0x0f, 0x2e, 0xde, 0xe9, 0xf0, 
    0x8e, 0x46, 0x50, 0x4f, 0x38, 0x65, 0x3c, 0xf8, 0x30, 0xc5, 
    0x6d, 0x04, 0x18, 0x23, 0x95, 0xb4, 0xb8, 0x9d, 0x9e, 0x9c, 
    0x7a, 0xad, 0x94, 0x5b, 0x7a, 0xad, 0x94, 0x99, 0x85, 0x52, 
    0x6b, 0x66, 0x5d, 0x7d, 0xbe, 0x84, 0xdf, 0xa9, 0xa8, 0xef, 
    0xd6, 0x05, 0x06, 0x34, 0xcc, 0x56, 0x9f, 0x5c, 0x76, 0x96, 
    0x25, 0x99, 0x3e, 0x5d, 0xb7, 0x94, 0x3e, 0x5c, 0x37, 0x9c, 
    0xc1, 0xa3, 0xc8, 0x63, 0x84, 0x7c, 0x30, 0x1e, 0x2d, 0x81, 
    0x43, 0x76, 0xb9, 0xdf, 0x6a, 0x4b, 0x53, 0xd7, 0xb4, 0x83, 
    0x11, 0xfb, 0x1b, 0xe5, 0x0b, 0xe3, 0xe3, 0x61, 0x0b, 0xe3, 
    0x73, 0x65, 0xf4, 0x1c, 0x8c, 0x9a, 0x42, 0xb0, 0x81, 0xf5, 
    0x3f, 0xd6, 0x5e, 0x2b, 0x09, 0xd1, 0x68, 0x78, 0xf6, 0x7c, 
    0x34, 0x97, 0xb3, 0x72, 0xf5, 0x7b, 0x82, 0xb8, 0x7c, 0x1d, 
    0x82, 0xb8, 0x7c, 0x5d, 0x7d, 0x47, 0x83, 0xa2, 0x00, 0x00, 
    0x00, 0x00, 0x01, 0x00, 0x00, 0x00, 0x00, 0x00, 0x00, 0x00, 
    0x01, 0x00, 0x00, 0x00, 0x00, 0x00, 0x00, 0x00, 0x01, 0x00, 
    0x00, 0x00, 0x01, 0x00, 0x00, 0x00, 0x00, 0x00, 0x00, 0x00, 
    0x42, 0x78, 0x38, 0x30, 0xe9, 0x08, 0x72, 0x8b, 0x90, 0xd1, 
    0x9b, 0xa8, 0x8d, 0xe8, 0x21, 0xd0, 0x7a, 0xf5, 0x97, 0xe7, 
    0xfc, 0xf1, 0x37, 0x39, 0xfc, 0xf1, 0x37, 0x39, 0x03, 0x0e, 
    0xc8, 0xc6, 0xa8, 0x3a, 0x07, 0x1f, 0xc9, 0x89, 0x53, 0xa3, 
    0x67, 0x07, 0xe8, 0xd0, 0x18, 0x6d, 0x74, 0x14, 0xcf, 0xbd, 
    0xd8, 0x4a, 0x27, 0x2e, 0xd8, 0x0e, 0x27, 0x2e, 0xd8, 0x0e, 
    0xd8, 0xd1, 0x27, 0xf1, 0x20, 0x4d, 0x61, 0xe8, 0xb8, 0x12, 
    0x70, 0xe7, 0x17, 0x55, 0x50, 0x4b, 0x5c, 0x9c, 0x4e, 0xd7, 
    0xe5, 0x82, 0x8e, 0x6c, 0xce, 0x22, 0x5e, 0x13, 0xc4, 0x02, 
    0x5e, 0x53, 0x3b, 0xfd, 0xa1, 0xac, 0x83, 0xaf, 0x89, 0xf6, 
    0x1d, 0x2f, 0x00, 0x69, 0xe9, 0xc2, 0x12, 0xbe, 0xca, 0x32, 
    0xbc, 0xd8, 0xcc, 0xb0, 0x18, 0x2f, 0x64, 0xb3, 0x19, 0xa5, 
    0x6c, 0xb2, 0x19, 0xa5, 0x93, 0x4d, 0xe6, 0x5a, 0xbf, 0x77, 
    0xce, 0x27, 0xb7, 0xd3, 0x92, 0xf1, 0x5a, 0x95, 0x4e, 0x05, 
    0x60, 0x79, 0x74, 0xf9, 0x90, 0xf8, 0xb5, 0x6a, 0x16, 0xd9, 
    0x35, 0x65, 0x16, 0xd9, 0xb5, 0x65, 0xe9, 0x26, 0x4a, 0x9a, 
    0xa8, 0xac, 0x85, 0xb5, 0xe3, 0x29, 0x9a, 0xb9, 0xbc, 0x19, 
    0xa6, 0xe1, 0x7e, 0xd0, 0xe6, 0x76, 0xad, 0x7b, 0xeb, 0x09, 
    0x5d, 0x51, 0xe3, 0x0e, 0xdd, 0x51, 0xe3, 0x0c, 0x22, 0xae, 
    0x1c, 0xf3, 0x3a, 0x2a, 0xb9, 0x43, 0xfd, 0x01, 0x22, 0x4a, 
    0x5c, 0xc7, 0xff, 0x62, 0xe6, 0x8c, 0xdd, 0x14, 0x57, 0x22, 
    0x1c, 0xff, 0x74, 0x07, 0x0d, 0xf1, 0x74, 0x27, 0x1d, 0xf7, 
    0x8b, 0xd8, 0xe2, 0x08, 0x4a, 0x4e, 0x03, 0xa9, 0xa5, 0xff, 
    0x80, 0xfa, 0x45, 0x34, 0x7e, 0xde, 0x4c, 0x65, 0x0e, 0x86, 
    0xae, 0xc1, 0xe9, 0x00, 0x61, 0xc0, 0x42, 0xc2, 0xe1, 0xe0, 
    0x42, 0xc2, 0x1e, 0x1f, 0xbd, 0x3d, 0x01, 0x00, 0x00, 0x00, 
    0x01, 0x00, 0x00, 0x00, 0x01, 0x00, 0x00, 0x00, 0x01, 0x00, 
    0x00, 0x00, 0x01, 0x00, 0x00, 0x00, 0x01, 0x00, 0x00, 0x00, 
    0x01, 0x00, 0x00, 0x00, 0x00, 0x00, 0x00, 0x00, 0x2d, 0xcf, 
    0xaf, 0x90, 0x1a, 0xc5, 0x29, 0x00, 0x03, 0x62, 0xfb, 0xdf, 
    0x4d, 0x4b, 0xdf, 0x21, 0x43, 0xe1, 0x2b, 0x0a, 0x86, 0x49, 
    0xfe, 0x8c, 0x87, 0x49, 0xfe, 0x8c, 0x78, 0xb6, 0x01, 0x73, 
    0xf6, 0x3f, 0x6f, 0xd2, 0xe2, 0xf7, 0x78, 0x40, 0xb9, 0xd6, 
    0xe0, 0xb4, 0x21, 0x29, 0x0e, 0x8c, 0x83, 0xcc, 0xcf, 0xb2, 
    0xa3, 0xd3, 0x4f, 0xb8, 0xa3, 0xd3, 0x4f, 0xb8, 0x5c, 0x2c, 
    0xb0, 0x47, 0x42, 0xaf, 0x60, 0x7a, 0x4a, 0x01, 0xf7, 0xea, 
    0xdb, 0x4f, 0xf9, 0xd6, 0xd9, 0x75, 0xe1, 0x68, 0xcc, 0x03, 
    0xf5, 0x67, 0xb8, 0x95, 0x34, 0x67, 0xd8, 0x15, 0xf4, 0x67, 
    0x27, 0xea, 0x0b, 0x98, 0x5c, 0x21, 0x3f, 0x10, 0x7c, 0xf6, 
    0x39, 0x60, 0x9c, 0x3c, 0xb2, 0x6b, 0x01, 0x2f, 0x0b, 0x8b, 
    0xd4, 0x24, 0xbf, 0x0b, 0x96, 0x0c, 0xab, 0x03, 0x96, 0x0c, 
    0xbb, 0x8b, 0x69, 0xf3, 0x44, 0x74, 0xff, 0xec, 0xa7, 0x4e, 
    0x06, 0x09, 0x49, 0x8a, 0x3f, 0xc6, 0x0f, 0x2e, 0x55, 0x98, 
    0xd2, 0x44, 0x04, 0xae, 0x2e, 0xa0, 0xd4, 0x86, 0x6e, 0xa8, 
    0x54, 0x8e, 0x6e, 0xa8, 0xab, 0x71, 0x91, 0x57, 0xeb, 0x8d, 
    0xe3, 0x92, 0x9d, 0x42, 0xa5, 0x88, 0x53, 0xd1, 0xfe, 0x8b, 
    0x98, 0xef, 0xe3, 0x0b, 0xf6, 0x41, 0x1f, 0xed, 0x50, 0x4b, 
    0x9f, 0x5f, 0x50, 0x4b, 0x9f, 0x4d, 0xaf, 0xb4, 0x60, 0xb2, 
    0x95, 0xa2, 0x74, 0x96, 0xa2, 0x13, 0xc0, 0x3a, 0x16, 0x37, 
    0x67, 0xb5, 0xa6, 0xde, 0x74, 0x1e, 0x26, 0xba, 0x8d, 0x3c, 
    0xa4, 0x5f, 0x9f, 0x34, 0xa4, 0x5f, 0x9f, 0x34, 0x5b, 0xa0, 
    0x60, 0xcb, 0xd6, 0xd7, 0x42, 0xf8, 0x12, 0x3c, 0x4b, 0xe4, 
    0xca, 0xf0, 0xd2, 0x55, 0x6f, 0xfe, 0xa5, 0x6b, 0x64, 0xfd, 
    0xc3, 0x1b, 0xe9, 0x77, 0xce, 0x1b, 0xe9, 0x77, 0xce, 0x1b, 
    0x16, 0x88, 0x31, 0xe4, 0x00, 0x00, 0x00, 0x00, 0x01, 0x00, 
    0x00, 0x00, 0x01, 0x00, 0x00, 0x00, 0x01, 0x00, 0x00, 0x00, 
    0x00, 0x00, 0x00, 0x00, 0x01, 0x00, 0x00, 0x00, 0x01, 0x00, 
    0x00, 0x00, 0x00, 0x00, 0x00, 0x00, 0x5e, 0xcd, 0xe5, 0x27, 
    0x6b, 0x60, 0xe6, 0x30, 0xc4, 0xd6, 0xbb, 0xd8, 0xbe, 0x1d, 
    0x9b, 0xa8, 0xde, 0x19, 0xec, 0x31, 0xfe, 0x9c, 0xe4, 0xa3, 
    0xfe, 0x1c, 0xe4, 0xa0, 0x01, 0xe3, 0x1b, 0x5f, 0x4e, 0x58, 
    0xd8, 0x86, 0x9a, 0xa5, 0xc2, 0x00, 0x86, 0xee, 0x79, 0x65, 
    0x24, 0xa4, 0x73, 0xcd, 0xad, 0xba, 0x27, 0x03, 0x06, 0x39, 
    0x6b, 0x81, 0x06, 0x39, 0x63, 0x81, 0xf9, 0xc6, 0x9c, 0x7e, 
    0x9d, 0xc6, 0xb2, 0xe3, 0xa3, 0xcf, 0xc4, 0x58, 0xd8, 0x61, 
    0x76, 0xaa, 0x78, 0x03, 0x07, 0xef, 0xa1, 0x9b, 0xff, 0xf0, 
    0xb1, 0x2b, 0x5f, 0xd8, 0xb1, 0x2b, 0x5f, 0xc8, 0x4e, 0xd4, 
    0xa0, 0x37, 0x77, 0x6a, 0x53, 0x55, 0x2a, 0xbb, 0xf6, 0x31, 
    0x0e, 0x70, 0x60, 0x94, 0x58, 0x33, 0x4d, 0x49, 0xef, 0xea, 
    0x71, 0xdf, 0x64, 0x10, 0x12, 0x4b, 0x6e, 0x10, 0x10, 0x4b, 
    0x91, 0xef, 0xef, 0xb4, 0xb7, 0xdc, 0xd2, 0x98, 0x57, 0x81, 
    0x3c, 0xd2, 0xe2, 0x43, 0xb8, 0xa2, 0xad, 0xa4, 0xf5, 0x08, 
    0x19, 0xb7, 0xb2, 0x6d, 0x6b, 0xbc, 0xbb, 0x0e, 0x69, 0xb4, 
    0xbb, 0x0e, 0x96, 0x4b, 0x44, 0xf1, 0x45, 0x3c, 0x05, 0x69, 
    0x15, 0x18, 0xf9, 0xec, 0x04, 0x36, 0x72, 0x17, 0x43, 0x4d, 
    0x2c, 0x88, 0x54, 0x74, 0xdb, 0xf3, 0x60, 0xf4, 0xbd, 0xba, 
    0x40, 0x74, 0xbd, 0xaa, 0xbf, 0x8b, 0x42, 0x55, 0xff, 0xf8, 
    0x65, 0xd2, 0x7b, 0x20, 0x2d, 0x3b, 0xa6, 0x4b, 0x66, 0x56, 
    0xe3, 0xe3, 0x23, 0x87, 0xe0, 0x30, 0x2d, 0xbe, 0x7c, 0x61, 
    0x2d, 0xcb, 0x7c, 0x61, 0x2d, 0x8b, 0x83, 0x9e, 0xd2, 0x74, 
    0xb6, 0xc4, 0xb4, 0xf7, 0xf0, 0x9c, 0xe5, 0x40, 0x60, 0x9c, 
    0x9c, 0x1b, 0xee, 0xe4, 0x8f, 0x88, 0x10, 0xe2, 0x91, 0x31, 
    0x50, 0xd5, 0x9c, 0x50, 0x50, 0xd5, 0x9c, 0x10, 0xaf, 0x2a, 
    0x63, 0xef, 0x01, 0x00, 0x00, 0x00, 0x01, 0x00, 0x00, 0x00, 
    0x01, 0x00, 0x00, 0x00, 0x00, 0x00, 0x00, 0x00, 0x01, 0x00, 
    0x00, 0x00, 0x01, 0x00, 0x00, 0x00, 0x01, 0x00, 0x00, 0x00, 
    0x00, 0x00, 0x00, 0x00, 0xd0, 0x71, 0xc5, 0x4a, 0x13, 0x27, 
    0xe6, 0x0e, 0x3d, 0x53, 0x17, 0x33, 0x86, 0xf7, 0x72, 0xd8, 
    0x96, 0x12, 0xc1, 0x58, 0x52, 0x5a, 0xd1, 0x98, 0x52, 0x5b, 
    0xd1, 0x98, 0xad, 0xa4, 0x2e, 0x67, 0xf3, 0xcd, 0x40, 0x44, 
    0xbd, 0x28, 0x21, 0x89, 0xa6, 0xb4, 0x9a, 0xb8, 0x30, 0xae, 
    0xe8, 0xee, 0x2d, 0x39, 0xe2, 0x2e, 0x6f, 0x7c, 0xf1, 0x5c, 
    0x6f, 0x78, 0xe3, 0x6e, 0x90, 0x87, 0x1c, 0x91, 0xc9, 0x8d, 
    0xc2, 0x64, 0x2b, 0x03, 0x86, 0x5c, 0x94, 0xa8, 0xe6, 0x7a, 
    0xf7, 0x40, 0x86, 0xbe, 0xbb, 0x61, 0x1d, 0xe0, 0x99, 0xf9, 
    0xbd, 0xb0, 0x99, 0xf9, 0xbd, 0xb0, 0x66, 0x06, 0x42, 0x4f, 
    0xc6, 0xb5, 0xef, 0xf2, 0xcb, 0x0c, 0xae, 0x1b, 0x09, 0x8a, 
    0x03, 0xcd, 0xb3, 0x7b, 0x22, 0x02, 0x76, 0xe8, 0xab, 0x32, 
    0x74, 0xcc, 0x22, 0x26, 0x76, 0xcc, 0x22, 0x22, 0x89, 0x33, 
    0xdd, 0xdd, 0xcb, 0xca, 0xe4, 0x24, 0x0f, 0x9b, 0x44, 0xb0, 
    0x0c, 0xec, 0x1d, 0x24, 0xe5, 0xc1, 0x47, 0xb3, 0xbc, 0x60, 
    0xad, 0x51, 0xe2, 0xe2, 0x2d, 0x5d, 0xe0, 0xe2, 0x2d, 0x55, 
    0x1f, 0x1d, 0xd2, 0xaa, 0x78, 0x65, 0x42, 0x20, 0xd9, 0xc6, 
    0x7f, 0x58, 0x02, 0x8b, 0x8b, 0x54, 0x64, 0xea, 0xc5, 0x56, 
    0x16, 0x04, 0x75, 0xf0, 0x74, 0x9c, 0xcc, 0x80, 0x54, 0x8e, 
    0xc5, 0xf0, 0xab, 0x71, 0x3a, 0x0f, 0x31, 0x9e, 0x75, 0x1e, 
    0x41, 0x8f, 0x48, 0x84, 0x25, 0x09, 0xd0, 0x30, 0xc0, 0x2f, 
    0xda, 0xba, 0x0e, 0x33, 0xb8, 0xea, 0x46, 0x2d, 0xf4, 0x73, 
    0x46, 0x2f, 0xf4, 0xf3, 0xb9, 0xd0, 0x0b, 0x0c, 0x2a, 0x2c, 
    0xab, 0x38, 0x2c, 0xa1, 0x4e, 0xac, 0x04, 0x56, 0xf1, 0x8a, 
    0xca, 0xc3, 0x14, 0xb6, 0x15, 0x83, 0x73, 0x6d, 0xb7, 0x91, 
    0x18, 0x47, 0x97, 0x93, 0x10, 0x47, 0x68, 0x6c, 0xef, 0xb8, 
    0x00, 0x00, 0x00, 0x00, 0x00, 0x00, 0x00, 0x00, 0x01, 0x00, 
    0x00, 0x00, 0x00, 0x00, 0x00, 0x00, 0x01, 0x00, 0x00, 0x00, 
    0x01, 0x00, 0x00, 0x00, 0x01, 0x00, 0x00, 0x00, 0x00, 0x00, 
    0x00, 0x00, 0x5d, 0x80, 0xb1, 0x27, 0xb4, 0xb2, 0x4b, 0x0c, 
    0x6a, 0xaa, 0x6d, 0x8a, 0xf7, 0xae, 0xb4, 0x61, 0xb2, 0x81, 
    0x47, 0x95, 0xf4, 0x8f, 0xc0, 0x83, 0xf4, 0x8b, 0xc0, 0x87, 
    0x0b, 0x74, 0x3f, 0x78, 0x8b, 0xc9, 0x6d, 0x3d, 0x54, 0x1e, 
    0x54, 0xdd, 0x68, 0x2b, 0xf7, 0xb2, 0x86, 0x79, 0xdb, 0x0a, 
    0xdd, 0x1b, 0x4a, 0xb4, 0xe0, 0x06, 0xa7, 0x14, 0xe0, 0x0e, 
    0xa7, 0x14, 0x1f, 0xf1, 0x58, 0xeb, 0x66, 0xf8, 0x4f, 0x13, 
    0x43, 0x34, 0x4c, 0x27, 0x1d, 0xee, 0xe6, 0x19, 0x14, 0xc8, 
    0x9d, 0x41, 0x68, 0x71, 0xba, 0xe5, 0x7f, 0x15, 0xac, 0xa9, 
    0x7d, 0x35, 0xae, 0xe9, 0x82, 0xca, 0x51, 0x16, 0xe0, 0xaf, 
    0x12, 0x83, 0xac, 0x0c, 0x63, 0x31, 0x0f, 0xb9, 0x00, 0x51, 
    0x0e, 0x27, 0xac, 0x84, 0x12, 0x1e, 0x02, 0x4e, 0x0c, 0x2f, 
    0x61, 0xce, 0x0c, 0x2f, 0x61, 0x4e, 0xf3, 0xd0, 0x9e, 0xb1, 
    0x7c, 0x5b, 0xcb, 0xde, 0x06, 0x2c, 0x19, 0xeb, 0x19, 0x2e, 
    0x71, 0x96, 0xc4, 0xac, 0x44, 0x03, 0x5d, 0x1b, 0xb6, 0xae, 
    0x45, 0xbe, 0x97, 0x8f, 0x45, 0x3e, 0x97, 0x8f, 0xba, 0xc1, 
    0x68, 0x70, 0x46, 0x67, 0xfa, 0x4b, 0x16, 0xd1, 0x80, 0x61, 
    0x87, 0xdd, 0x7c, 0x75, 0x0b, 0xe0, 0x48, 0xf4, 0xa6, 0x0b, 
    0xe1, 0x02, 0x0b, 0x8a, 0x61, 0x40, 0x8f, 0x8b, 0x61, 0x40, 
    0x70, 0x74, 0x9e, 0xbf, 0x7b, 0xfb, 0xcb, 0x91, 0xf4, 0x67, 
    0x6c, 0x57, 0xf6, 0x16, 0x4f, 0x75, 0x42, 0x28, 0xbf, 0x0e, 
    0x62, 0x69, 0x70, 0xba, 0x4a, 0x2a, 0x60, 0xa0, 0x4a, 0x28, 
    0x60, 0xa2, 0xb5, 0xd7, 0x9f, 0x5d, 0xde, 0x3d, 0x13, 0x11, 
    0xb6, 0xad, 0x07, 0xf7, 0x65, 0xbf, 0xb0, 0xb6, 0xd6, 0x10, 
    0x28, 0xf7, 0x9b, 0x62, 0x0b, 0x48, 0x53, 0xb4, 0x2b, 0x33, 
    0xd3, 0xb4, 0x2b, 0x73, 0x2c, 0x4b, 0xd4, 0x8c, 0x00, 0x00, 
    0x00, 0x00, 0x01, 0x00, 0x00, 0x00, 0x00, 0x00, 0x00, 0x00, 
    0x00, 0x00, 0x00, 0x00, 0x00, 0x00, 0x00, 0x00, 0x01, 0x00, 
    0x00, 0x00, 0x01, 0x00, 0x00, 0x00, 0x00, 0x00, 0x00, 0x00, 
    0xbb, 0x06, 0xf8, 0xf4, 0xe2, 0x7f, 0x58, 0xb0, 0x4c, 0x95, 
    0xc4, 0x15, 0x18, 0xd4, 0x3c, 0xd2, 0x2f, 0xe7, 0x0d, 0x13, 
    0x19, 0x67, 0x0f, 0x50, 0x39, 0x67, 0x0c, 0x50, 0xc6, 0x98, 
    0xf3, 0xaf, 0xca, 0x03, 0x23, 0x31, 0x22, 0xf6, 0xe4, 0xc6, 
    0x43, 0x06, 0xd3, 0x04, 0x83, 0xf9, 0x2b, 0xe0, 0x5a, 0x80, 
    0x4c, 0x36, 0x12, 0xf0, 0xc1, 0x77, 0x12, 0xd1, 0xc9, 0x77, 
    0xed, 0x2e, 0x36, 0x88, 0xe9, 0x74, 0x24, 0xbb, 0x6a, 0x18, 
    0x27, 0x66, 0xfb, 0xab, 0x3c, 0x45, 0xef, 0xba, 0x9c, 0x13, 
    0xe7, 0xe3, 0xe2, 0x8e, 0x62, 0x97, 0x76, 0x03, 0x62, 0xb3, 
    0xf6, 0x03, 0x9d, 0x4c, 0x09, 0xfc, 0x3b, 0x18, 0x69, 0x09, 
    0xc9, 0xb5, 0x86, 0x0b, 0xb5, 0xc5, 0xe9, 0x2f, 0xd8, 0x24, 
    0x62, 0x33, 0x91, 0x04, 0x64, 0xf8, 0x90, 0x01, 0x14, 0xfa, 
    0x90, 0x01, 0x20, 0xfa, 0x6f, 0xfe, 0xdf, 0x05, 0x8a, 0x3f, 
    0x8b, 0x7e, 0xad, 0x86, 0xaf, 0x6e, 0x24, 0x8a, 0x72, 0xc7, 
    0x72, 0xea, 0x7b, 0xf6, 0x20, 0x25, 0x44, 0xb7, 0xa2, 0xb0, 
    0x76, 0xc7, 0xa2, 0xa0, 0x76, 0xd7, 0x5d, 0x5f, 0x89, 0x28, 
    0x3e, 0xa2, 0x76, 0x94, 0x65, 0x98, 0x57, 0xe7, 0x89, 0xb6, 
    0x26, 0x29, 0x9c, 0xfb, 0xb6, 0xa6, 0xa2, 0x7e, 0xfa, 0xe2, 
    0xb0, 0xf4, 0xe9, 0xe6, 0xb0, 0xf4, 0xe9, 0xe6, 0x4f, 0x0b, 
    0x16, 0x19, 0x4d, 0xa5, 0x55, 0xd0, 0x1f, 0x4d, 0x7b, 0x8d, 
    0xda, 0x14, 0xd1, 0xa6, 0x68, 0x62, 0xbb, 0xe5, 0x22, 0xba, 
    0x2c, 0xc5, 0xc8, 0x7e, 0x7c, 0x49, 0xc8, 0x7a, 0x7c, 0x4d, 
    0x37, 0x85, 0x83, 0xb2, 0xc3, 0x5e, 0x01, 0xcd, 0x9c, 0x11, 
    0xf3, 0x2d, 0x7a, 0xee, 0x11, 0x31, 0xdc, 0xab, 0x44, 0xc4, 
    0x51, 0x14, 0xb3, 0x77, 0x48, 0xb4, 0x45, 0x01, 0x58, 0xb4, 
    0x45, 0x41, 0xa7, 0x4b, 0xba, 0xbe, 0x01, 0x00, 0x00, 0x00, 
    0x00, 0x00, 0x00, 0x00, 0x00, 0x00, 0x00, 0x00, 0x00, 0x00, 
    0x00, 0x00, 0x00, 0x00, 0x00, 0x00, 0x01, 0x00, 0x00, 0x00, 
    0x01, 0x00, 0x00, 0x00, 0x00, 0x00, 0x00, 0x00, 0xbe, 0xc5, 
    0x05, 0xaf, 0x59, 0x37, 0xee, 0x47, 0xeb, 0x14, 0xa1, 0x64, 
    0xd2, 0x71, 0x6a, 0x0a, 0x66, 0x20, 0x65, 0xdf, 0xc6, 0x29, 
    0x75, 0x22, 0x46, 0x21, 0x75, 0x26, 0xb9, 0xde, 0x8a, 0xd9, 
    0x70, 0x38, 0x0c, 0x91, 0x5f, 0x36, 0x4e, 0xfd, 0x6f, 0x1f, 
    0x8b, 0x2d, 0x97, 0xe7, 0x26, 0x1e, 0x06, 0x4f, 0x7c, 0xbe, 
    0x02, 0xe7, 0xb5, 0xae, 0x82, 0xe7, 0xb4, 0xbe, 0x7d, 0x18, 
    0x4b, 0x41, 0xed, 0xf3, 0x96, 0x19, 0xef, 0x3d, 0x82, 0xea, 
    0xd6, 0x41, 0xb4, 0x36, 0xd4, 0x62, 0x5b, 0xf6, 0x85, 0xaf, 
    0x52, 0xf8, 0xae, 0x61, 0x5e, 0xa7, 0xac, 0x61, 0x5e, 0xa7, 
    0x53, 0x9e, 0xa1, 0x58, 0x63, 0x0e, 0x62, 0xd3, 0x65, 0x9c, 
    0x9e, 0x88, 0x23, 0xdd, 0xa4, 0xc0, 0x8c, 0x63, 0xdd, 0xd9, 
    0x45, 0xde, 0x60, 0x0f, 0xd6, 0x46, 0x02, 0xa3, 0x54, 0x4e, 
    0x02, 0xa3, 0xab, 0xb1, 0xfd, 0x5c, 0xef, 0x16, 0x95, 0xbd, 
    0x36, 0x9d, 0x3a, 0xd2, 0x62, 0x0c, 0x58, 0x20, 0x86, 0x9f, 
    0x1d, 0xb8, 0xbf, 0x75, 0x78, 0xa6, 0x17, 0x7c, 0x59, 0x21, 
    0x97, 0x7c, 0x59, 0x25, 0x68, 0x83, 0xa6, 0xda, 0x5f, 0xd0, 
    0x64, 0xf4, 0x18, 0x66, 0x4e, 0xbf, 0x5b, 0xfc, 0x3f, 0x39, 
    0xbe, 0xf4, 0x88, 0xe1, 0xe4, 0x44, 0x5a, 0xd6, 0xf7, 0x67, 
    0x1a, 0x12, 0xf7, 0x44, 0x1a, 0x12, 0x08, 0xbb, 0xe5, 0xed, 
    0xbc, 0xf8, 0xe7, 0x64, 0xf8, 0xf0, 0xa5, 0xc5, 0x00, 0xc5, 
    0xf5, 0x39, 0x05, 0x8a, 0xc1, 0x6d, 0x29, 0xfd, 0x8e, 0x4d, 
    0x68, 0x94, 0xc7, 0x6d, 0x28, 0x94, 0xc7, 0x6d, 0xd7, 0x6b, 
    0x38, 0x92, 0x5a, 0xad, 0x07, 0xc2, 0x9b, 0x86, 0xe7, 0x02, 
    0x5f, 0x10, 0xef, 0x0d, 0xe7, 0xf2, 0x98, 0x78, 0x3d, 0xe8, 
    0xe4, 0x0f, 0x65, 0xc8, 0xd0, 0x7b, 0x65, 0xc8, 0xd0, 0x5b, 
    0x9a, 0x37, 0x2f, 0xa4, 0x00, 0x00, 0x00, 0x00, 0x01, 0x00, 
    0x00, 0x00, 0x00, 0x00, 0x00, 0x00, 0x00, 0x00, 0x00, 0x00, 
    0x01, 0x00, 0x00, 0x00, 0x01, 0x00, 0x00, 0x00, 0x01, 0x00, 
    0x00, 0x00, 0x00, 0x00, 0x00, 0x00, 0xd0, 0xce, 0xb3, 0x2b, 
    0x6c, 0xd6, 0x8b, 0x4e, 0xf2, 0xab, 0xeb, 0x05, 0xb0, 0xe7, 
    0xcc, 0xd2, 0x15, 0xfe, 0x97, 0x4d, 0x86, 0xbe, 0xdf, 0xcd, 
    0x86, 0xbe, 0xcf, 0xcd, 0x79, 0x41, 0x30, 0x32, 0x9c, 0xa9, 
    0x61, 0x00, 0x3e, 0x63, 0xb4, 0x5b, 0x38, 0xf2, 0x36, 0x88, 
    0x07, 0xb6, 0x64, 0x45, 0x92, 0xe4, 0x4d, 0xa2, 0x00, 0xb7, 
    0x4d, 0x2c, 0x00, 0xb7, 0x4d, 0xac, 0xff, 0x48, 0xb2, 0x53, 
    0xcf, 0x72, 0x93, 0xb4, 0x91, 0xbc, 0x1b, 0x03, 0x01, 0x7a, 
    0xf9, 0x37, 0x06, 0xcf, 0x5c, 0x8e, 0x2f, 0xc9, 0x76, 0xb3, 
    0x18, 0x7a, 0x76, 0xfc, 0x18, 0xba, 0x76, 0xbe, 0xe7, 0x05, 
    0x89, 0x41, 0x6a, 0x72, 0x3f, 0xb8, 0x16, 0xfd, 0xf3, 0xdc, 
    0xe4, 0x97, 0xbc, 0xcc, 0x12, 0x9b, 0x07, 0x02, 0xaf, 0xd9, 
    0xdb, 0x92, 0x8d, 0x59, 0xc7, 0x06, 0x8d, 0xd9, 0xc7, 0x06, 
    0x72, 0x26, 0x38, 0xf9, 0xcd, 0x73, 0xe4, 0x35, 0x7a, 0x80, 
    0xf9, 0xfb, 0x09, 0x53, 0xe6, 0x44, 0x54, 0x9c, 0x24, 0x13, 
    0xc8, 0xe3, 0x82, 0xe1, 0x48, 0xca, 0x94, 0x63, 0x48, 0xca, 
    0x84, 0x63, 0xb7, 0x35, 0x7b, 0x9c, 0x41, 0xbb, 0x1b, 0xf7, 
    0x2c, 0xfe, 0x1e, 0x13, 0x65, 0x39, 0xde, 0x26, 0x46, 0x50, 
    0xf2, 0xa1, 0x00, 0x0b, 0xd5, 0x79, 0x54, 0x43, 0x15, 0x2a, 
    0x44, 0x43, 0x15, 0x6b, 0xbb, 0xbc, 0xea, 0x94, 0xa3, 0x44, 
    0xb6, 0xc5, 0x53, 0xaa, 0xcd, 0xa0, 0xe3, 0x06, 0xeb, 0x20, 
    0x73, 0xc4, 0x45, 0x0d, 0x1a, 0xba, 0xda, 0x20, 0xd3, 0xe2, 
    0xba, 0x64, 0xd3, 0xe2, 0xba, 0x20, 0x2c, 0x1d, 0x45, 0xdf, 
    0x34, 0x47, 0x05, 0x41, 0x1c, 0xb3, 0x04, 0x02, 0x19, 0xa1, 
    0xa4, 0x04, 0x7f, 0x75, 0xc3, 0xc7, 0xf9, 0xaf, 0xac, 0x8f, 
    0xd9, 0xf3, 0x4f, 0xb7, 0xd9, 0xf3, 0x4f, 0x97, 0x26, 0x0c, 
    0xb0, 0x68, 0x00, 0x00, 0x00, 0x00, 0x01, 0x00, 0x00, 0x00, 
    0x01, 0x00, 0x00, 0x00, 0x00, 0x00, 0x00, 0x00, 0x01, 0x00, 
    0x00, 0x00, 0x01, 0x00, 0x00, 0x00, 0x01, 0x00, 0x00, 0x00, 
    0x00, 0x00, 0x00, 0x00, 0x13, 0xb9, 0xd8, 0x0b, 0xa9, 0xaf, 
    0x83, 0x19, 0xb5, 0xea, 0x75, 0x81, 0xb1, 0xd3, 0x52, 0x95, 
    0x60, 0x4b, 0x18, 0xde, 0x74, 0x9f, 0x98, 0x9d, 0x74, 0xdf, 
    0x18, 0x9d, 0x8b, 0x20, 0xe7, 0x62, 0x82, 0x65, 0xb3, 0x18, 
    0x0c, 0xa4, 0x3b, 0xfb, 0x39, 0xff, 0xe7, 0x47, 0x7b, 0x1d, 
    0xb6, 0xfe, 0x7b, 0xb3, 0xa6, 0xda, 0x53, 0xb5, 0x66, 0xdb, 
    0x5b, 0xb5, 0x66, 0xdb, 0xa4, 0x4a, 0x99, 0x24, 0x01, 0x3f, 
    0xf3, 0xc0, 0x60, 0x70, 0x14, 0xd2, 0xe0, 0xf8, 0xc4, 0x31, 
    0xc9, 0x20, 0xc1, 0x69, 0x35, 0x30, 0x56, 0xc9, 0x84, 0x28, 
    0x4d, 0x4a, 0x8c, 0x28, 0x4d, 0x4a, 0x73, 0xd7, 0xb2, 0xb5, 
    0x3f, 0x6e, 0x45, 0xd9, 0xa0, 0x54, 0x23, 0x06, 0x23, 0xcd, 
    0x8f, 0x76, 0x39, 0x7d, 0xa7, 0x4d, 0x25, 0x90, 0x1e, 0x6b, 
    0x21, 0xdf, 0xf3, 0x29, 0x21, 0xd7, 0xfb, 0x69, 0xde, 0x28, 
    0x04, 0x96, 0x87, 0x17, 0xd5, 0x68, 0x9c, 0x09, 0x04, 0xce, 
    0x1c, 0xc2, 0x2e, 0xed, 0xe5, 0xe2, 0xf5, 0x61, 0x52, 0x34, 
    0x4f, 0x27, 0x5a, 0x66, 0x43, 0x21, 0x7a, 0x66, 0x43, 0x21, 
    0x85, 0x99, 0xbc, 0xde, 0xb3, 0x1a, 0x43, 0x87, 0x0a, 0xd3, 
    0xda, 0xc4, 0xa9, 0xfd, 0x54, 0xd3, 0x60, 0xa0, 0x2c, 0x41, 
    0x75, 0x74, 0x20, 0x25, 0x68, 0x68, 0x2c, 0x03, 0x68, 0x60, 
    0x2c, 0x03, 0x97, 0x9f, 0xd3, 0xfc, 0xec, 0x2a, 0x7c, 0x2e, 
    0x7b, 0x70, 0x1b, 0x98, 0xc6, 0xa7, 0xd2, 0x32, 0xbd, 0x35, 
    0xff, 0x14, 0x27, 0x7d, 0x1a, 0x50, 0x8e, 0x61, 0x3e, 0x50, 
    0x8f, 0x61, 0x3e, 0x50, 0x70, 0x9e, 0xc1, 0xaf, 0x06, 0x1f, 
    0xe1, 0xf8, 0x97, 0xab, 0x39, 0x0c, 0x51, 0x48, 0x88, 0x2a, 
    0xa4, 0xdf, 0x5c, 0x42, 0x5e, 0xee, 0x8a, 0xec, 0x5c, 0xef, 
    0xcc, 0xdc, 0x5c, 0xef, 0xcc, 0xdc, 0xa3, 0x10, 0x33, 0x23, 
    0x00, 0x00, 0x00, 0x00, 0x01, 0x00, 0x00, 0x00, 0x00, 0x00, 
    0x00, 0x00, 0x00, 0x00, 0x00, 0x00, 0x00, 0x00, 0x00, 0x00, 
    0x01, 0x00, 0x00, 0x00, 0x00, 0x00, 0x00, 0x00, 0x01, 0x00, 
    0x00, 0x00
};

