#include "weight.h"

#define WEIGHT_SIZE (864)
PI_L1 uint8_t weight[WEIGHT_SIZE] = {
    0xfa, 0x5e, 0x7d, 0x0e, 0x0d, 0x0d, 0x03, 0xc1, 0x56, 0x6a, 
    0x95, 0x9e, 0x1e, 0xdf, 0x88, 0x4d, 0xbe, 0x88, 0xc4, 0x67, 
    0x6e, 0x2e, 0x9e, 0x60, 0xcc, 0xb4, 0x25, 0x04, 0xe5, 0xfc, 
    0x82, 0x6b, 0x1e, 0x34, 0x8a, 0x08, 0x47, 0xda, 0xe8, 0xeb, 
    0x39, 0x54, 0x10, 0x81, 0x36, 0x76, 0x53, 0xa3, 0x87, 0x45, 
    0x86, 0xd4, 0x9b, 0xb1, 0x58, 0xb8, 0xad, 0xa8, 0x47, 0x0a, 
    0x0c, 0xde, 0x20, 0xc5, 0xae, 0xf5, 0xaa, 0xaf, 0x29, 0x92, 
    0x48, 0x40, 0xd2, 0x79, 0x9d, 0x5c, 0xa5, 0x8e, 0x6d, 0x1a, 
    0x0b, 0x12, 0xf4, 0x03, 0xa3, 0x1f, 0x45, 0x3c, 0x16, 0xd5, 
    0xb6, 0xe1, 0x25, 0xce, 0x4a, 0x1d, 0xe4, 0xc8, 0xd6, 0xda, 
    0x54, 0xfa, 0x6c, 0x63, 0x35, 0x4b, 0x0b, 0x3a, 0x84, 0xe5, 
    0x8c, 0x89, 0x18, 0xb9, 0x94, 0x6d, 0x01, 0xf2, 0x5d, 0x39, 
    0xc0, 0x2d, 0x4d, 0x97, 0x42, 0xaa, 0x49, 0x6b, 0x2b, 0xa0, 
    0xd4, 0x4b, 0x06, 0xeb, 0x48, 0xab, 0xc5, 0x11, 0x2b, 0xf8, 
    0xb9, 0xc8, 0xa7, 0xb0, 0xe5, 0xe8, 0x69, 0x5b, 0xe8, 0xaf, 
    0xdf, 0xa2, 0x32, 0x3a, 0xc6, 0x20, 0x86, 0xc9, 0x2d, 0x81, 
    0xa3, 0xd2, 0x07, 0xd2, 0x43, 0x24, 0xd8, 0x02, 0x0c, 0x37, 
    0x48, 0x6f, 0x5f, 0x83, 0x47, 0x76, 0xd5, 0xf6, 0xe6, 0xb1, 
    0xef, 0xcb, 0x5a, 0x39, 0xc0, 0x85, 0x0e, 0xa9, 0x30, 0x39, 
    0x75, 0x01, 0x06, 0xc7, 0x29, 0x35, 0xa3, 0x98, 0x56, 0xd9, 
    0x40, 0x54, 0xe8, 0x0d, 0x4f, 0xb7, 0x68, 0xfb, 0x57, 0x82, 
    0x2f, 0x56, 0x91, 0x70, 0xe2, 0xab, 0xe7, 0xcb, 0x5a, 0x19, 
    0xc0, 0xa5, 0x0f, 0xa9, 0xb0, 0x39, 0x75, 0x01, 0x06, 0xcf, 
    0x2d, 0xb5, 0xa3, 0x98, 0x56, 0xd9, 0x49, 0x54, 0xe8, 0x0b, 
    0x4c, 0x37, 0x68, 0xfb, 0x57, 0x83, 0x2f, 0x56, 0x91, 0x70, 
    0xe2, 0xbb, 0x18, 0x34, 0xa5, 0xe6, 0x3f, 0x5a, 0xf0, 0x56, 
    0xcf, 0xc6, 0x8a, 0xfe, 0xf9, 0x30, 0xd2, 0x4a, 0x5c, 0x67, 
    0xa9, 0x26, 0xb6, 0xab, 0x17, 0xf4, 0xb3, 0xc8, 0x97, 0x04, 
    0xa8, 0x7c, 0xd0, 0xa9, 0x6e, 0x8f, 0x1d, 0x44, 0xe0, 0x3e, 
    0x07, 0xbc, 0x00, 0x64, 0x58, 0x14, 0x26, 0xc1, 0x52, 0x73, 
    0x88, 0xf8, 0x22, 0xa9, 0x3c, 0x42, 0x0d, 0x4a, 0xec, 0xf8, 
    0xc2, 0xd7, 0x29, 0x6d, 0x02, 0x04, 0xc4, 0x15, 0x40, 0x12, 
    0xe1, 0xc4, 0x5c, 0x34, 0x8f, 0x46, 0x86, 0xbc, 0x93, 0xf4, 
    0xeb, 0x2d, 0xcb, 0x67, 0xb6, 0x56, 0x32, 0x8c, 0xe0, 0x87, 
    0x3e, 0x17, 0x06, 0xe6, 0x57, 0xf9, 0xfc, 0x7f, 0x6d, 0x3d, 
    0x08, 0x83, 0x1c, 0x36, 0x47, 0x2b, 0x55, 0xf5, 0x89, 0x66, 
    0xcf, 0xf5, 0x5a, 0x34, 0x95, 0x7b, 0x6f, 0xfa, 0x1a, 0x5b, 
    0x1b, 0x05, 0x62, 0x8d, 0x0a, 0x21, 0x83, 0x83, 0x22, 0x3c, 
    0x39, 0x47, 0x24, 0x17, 0x8f, 0xea, 0xce, 0x2d, 0xdf, 0x47, 
    0x86, 0x49, 0x4f, 0xba, 0x0e, 0x2f, 0xa5, 0xa5, 0x1b, 0x3d, 
    0xc6, 0x20, 0x4f, 0xf0, 0x86, 0x62, 0x47, 0xed, 0x22, 0x19, 
    0x71, 0xad, 0x27, 0xaf, 0xe9, 0x56, 0x93, 0xf5, 0x5c, 0x47, 
    0xff, 0xce, 0xbf, 0x2a, 0xa8, 0x95, 0x9a, 0xb5, 0x17, 0xc1, 
    0xa6, 0x3b, 0x6e, 0xd9, 0x6a, 0xde, 0xf3, 0x7d, 0xd8, 0x33, 
    0xca, 0x0d, 0xa9, 0xd2, 0x48, 0x38, 0x3b, 0x84, 0x48, 0x60, 
    0xb7, 0x2c, 0x8a, 0x85, 0xb8, 0xcb, 0x01, 0xe5, 0xe5, 0x94, 
    0xbf, 0xb4, 0x5b, 0x60, 0x98, 0xfb, 0xe6, 0xae, 0x45, 0xf1, 
    0x6b, 0xbe, 0x65, 0x49, 0x54, 0x33, 0xd7, 0x32, 0x2f, 0xc0, 
    0x5c, 0x2a, 0x31, 0xa7, 0x0c, 0xe6, 0xaf, 0x2a, 0x9f, 0x64, 
    0x7c, 0x57, 0xab, 0xbb, 0xa7, 0x15, 0xbc, 0x92, 0x84, 0x2f, 
    0x81, 0x87, 0xe3, 0x8f, 0x45, 0xf1, 0x6b, 0xbe, 0x65, 0x69, 
    0x5c, 0x33, 0xc6, 0x32, 0x2f, 0xc0, 0x5c, 0x28, 0x39, 0xa5, 
    0x0c, 0xe4, 0xaf, 0x2e, 0x9b, 0x64, 0x78, 0x47, 0xab, 0xbf, 
    0xe7, 0x15, 0xbc, 0x94, 0xc0, 0x2f, 0x90, 0x87, 0xe3, 0x8f, 
    0xba, 0x0e, 0x94, 0x41, 0x9a, 0x96, 0xa3, 0xcc, 0x39, 0xcd, 
    0xd0, 0x3f, 0xa3, 0xd7, 0xc6, 0x5a, 0xf3, 0x1b, 0x50, 0xd1, 
    0x64, 0x9b, 0x87, 0xb8, 0x54, 0x40, 0x18, 0xea, 0x43, 0x6b, 
    0x3f, 0xd0, 0x6f, 0x78, 0x1c, 0x70, 0x03, 0x00, 0x00, 0x00, 
    0x03, 0x00, 0x00, 0x00, 0x00, 0x00, 0x00, 0x00, 0x03, 0x00, 
    0x00, 0x00, 0x02, 0x00, 0x00, 0x00, 0x06, 0x00, 0x00, 0x00, 
    0x00, 0x00, 0x00, 0x00, 0x03, 0x00, 0x00, 0x00, 0x04, 0x00, 
    0x00, 0x00, 0x00, 0x00, 0x00, 0x00, 0x00, 0x00, 0x00, 0x00, 
    0x02, 0x00, 0x00, 0x00, 0x03, 0x00, 0x00, 0x00, 0x01, 0x00, 
    0x00, 0x00, 0x00, 0x00, 0x00, 0x00, 0x07, 0x00, 0x00, 0x00, 
    0x01, 0x00, 0x00, 0x00, 0x02, 0x00, 0x00, 0x00, 0x02, 0x00, 
    0x00, 0x00, 0x01, 0x00, 0x00, 0x00, 0x02, 0x00, 0x00, 0x00, 
    0x06, 0x00, 0x00, 0x00, 0x00, 0x00, 0x00, 0x00, 0x04, 0x00, 
    0x00, 0x00, 0x07, 0x00, 0x00, 0x00, 0x07, 0x00, 0x00, 0x00, 
    0x04, 0x00, 0x00, 0x00, 0x00, 0x00, 0x00, 0x00, 0x07, 0x00, 
    0x00, 0x00, 0x04, 0x00, 0x00, 0x00, 0x02, 0x00, 0x00, 0x00, 
    0x06, 0x00, 0x00, 0x00, 0x07, 0x00, 0x00, 0x00, 0x03, 0x00, 
    0x00, 0x00, 0x03, 0x00, 0x00, 0x00, 0x05, 0x00, 0x00, 0x00, 
    0x00, 0x00, 0x00, 0x00, 0x00, 0x00, 0x00, 0x00, 0x05, 0x00, 
    0x00, 0x00, 0x00, 0x00, 0x00, 0x00, 0x04, 0x00, 0x00, 0x00, 
    0x04, 0x00, 0x00, 0x00, 0x06, 0x00, 0x00, 0x00, 0x07, 0x00, 
    0x00, 0x00, 0x07, 0x00, 0x00, 0x00, 0x06, 0x00, 0x00, 0x00, 
    0x00, 0x00, 0x00, 0x00, 0x01, 0x00, 0x00, 0x00, 0x00, 0x00, 
    0x00, 0x00, 0x00, 0x00, 0x00, 0x00, 0x05, 0x00, 0x00, 0x00, 
    0x00, 0x00, 0x00, 0x00, 0x07, 0x00, 0x00, 0x00, 0x06, 0x00, 
    0x00, 0x00, 0x06, 0x00, 0x00, 0x00, 0x00, 0x00, 0x00, 0x00, 
    0x01, 0x00, 0x00, 0x00, 0x00, 0x00, 0x00, 0x00, 0x00, 0x00, 
    0x00, 0x00, 0x05, 0x00, 0x00, 0x00, 0x03, 0x00, 0x00, 0x00, 
    0x07, 0x00, 0x00, 0x00, 0x06, 0x00, 0x00, 0x00, 0x01, 0x00, 
    0x00, 0x00, 0x07, 0x00, 0x00, 0x00, 0x06, 0x00, 0x00, 0x00, 
    0x07, 0x00, 0x00, 0x00, 0x07, 0x00, 0x00, 0x00, 0x02, 0x00, 
    0x00, 0x00, 0x04, 0x00, 0x00, 0x00, 0x00, 0x00, 0x00, 0x00, 
    0x01, 0x00, 0x00, 0x00
};

