#ifndef __WEIGHT_H__
#define __WEIGHT_H__

#include <pmsis.h>

#define WEIGHT_SIZE (1024)
PI_L1 uint8_t weight[WEIGHT_SIZE] = {
    0x6e, 0xe7, 0xcc, 0xf1, 0x1d, 0x56, 0xfe, 0xa4, 0xdd, 0x6c, 
    0x22, 0xe7, 0x2b, 0x7d, 0x5a, 0xc1, 0x16, 0x58, 0x21, 0xc1, 
    0x16, 0x95, 0x10, 0x54, 0x9c, 0xdd, 0xc9, 0x66, 0x89, 0x93, 
    0xc7, 0xe1, 0x73, 0x89, 0xad, 0x4d, 0x48, 0x2e, 0xe5, 0x3e, 
    0x29, 0x36, 0x3c, 0xae, 0xc3, 0xa4, 0x4a, 0x2b, 0x00, 0x54, 
    0x42, 0xed, 0x55, 0x7d, 0x54, 0x94, 0x70, 0x1e, 0x3c, 0x46, 
    0x86, 0x01, 0xd3, 0xa4, 0xe2, 0x52, 0x0c, 0x87, 0x0b, 0x5e, 
    0x02, 0xfb, 0xcd, 0x76, 0xb6, 0x83, 0xc5, 0x9c, 0xf1, 0x6a, 
    0x7f, 0x5f, 0xc0, 0x9c, 0x13, 0xde, 0xdd, 0x70, 0xb6, 0x38, 
    0x98, 0x87, 0xe5, 0x71, 0xc7, 0x37, 0x9b, 0x47, 0x54, 0xfa, 
    0xeb, 0xc7, 0x72, 0x0f, 0x61, 0x72, 0xff, 0x63, 0xc5, 0x59, 
    0xb5, 0xeb, 0x0f, 0x38, 0xff, 0x68, 0x18, 0x4e, 0xdb, 0x0a, 
    0x0e, 0xc6, 0x77, 0x17, 0xa5, 0x2e, 0x36, 0x00, 0x8e, 0xe2, 
    0x41, 0x4f, 0x1e, 0x13, 0x83, 0x6a, 0x9b, 0x08, 0xc1, 0x63, 
    0x4e, 0x14, 0xd8, 0xd0, 0x00, 0x8b, 0x06, 0x30, 0xcc, 0x11, 
    0x44, 0x09, 0x1e, 0x9a, 0x07, 0xde, 0x4e, 0x6d, 0x45, 0x36, 
    0xdd, 0x98, 0x27, 0x32, 0x60, 0xfa, 0xfb, 0x7b, 0x29, 0x73, 
    0xe6, 0x6c, 0xec, 0xa1, 0x3f, 0x36, 0x9b, 0x8c, 0xa4, 0x03, 
    0x08, 0x60, 0x2b, 0x06, 0xff, 0x89, 0x4d, 0x26, 0x90, 0x0e, 
    0x34, 0xcf, 0xf4, 0x1a, 0xd6, 0xa6, 0x55, 0x06, 0xdf, 0x83, 
    0x46, 0x0b, 0xec, 0x7a, 0x27, 0xb4, 0x88, 0x8e, 0xae, 0xa4, 
    0xad, 0xcd, 0x3e, 0x2a, 0xc7, 0xba, 0xb6, 0x1b, 0x1f, 0xe3, 
    0x26, 0x65, 0xc8, 0x2a, 0x0b, 0xaa, 0xfa, 0xf9, 0x5c, 0xe3, 
    0x07, 0x50, 0xc9, 0x51, 0x26, 0x10, 0x83, 0xa6, 0x3e, 0x54, 
    0x7b, 0xe3, 0x46, 0x79, 0x9a, 0xbe, 0x25, 0xe9, 0x83, 0x2b, 
    0xbb, 0xec, 0x29, 0x7c, 0xe9, 0xc7, 0x28, 0x99, 0x1d, 0x7f, 
    0xb3, 0x1b, 0x01, 0xa6, 0xe2, 0xed, 0x8b, 0xce, 0x0e, 0xe1, 
    0x8a, 0x93, 0x44, 0x13, 0xae, 0xee, 0x19, 0x7d, 0x87, 0xea, 
    0xd7, 0x70, 0x9f, 0x3c, 0xbf, 0x2f, 0x5c, 0x60, 0x10, 0xae, 
    0x4b, 0x6b, 0x2d, 0x7e, 0xe5, 0x8a, 0xa9, 0xa0, 0xf9, 0x8e, 
    0x4f, 0x98, 0x19, 0xf9, 0x3e, 0x4b, 0x0d, 0xf0, 0x81, 0xe0, 
    0x52, 0xa8, 0xb5, 0x29, 0x40, 0x0d, 0x71, 0x90, 0x39, 0xe8, 
    0x7d, 0x15, 0xf7, 0x21, 0x59, 0x34, 0xf3, 0xfb, 0xc2, 0x51, 
    0x37, 0xee, 0x78, 0x32, 0x06, 0xdd, 0xfb, 0xf4, 0x39, 0xb7, 
    0x96, 0x1f, 0x17, 0x94, 0x36, 0x2e, 0xb7, 0xd2, 0x6b, 0xa3, 
    0x5d, 0x35, 0xcb, 0x76, 0xb2, 0xa9, 0x01, 0xaa, 0xd1, 0xd1, 
    0x8a, 0xb7, 0x86, 0x17, 0x21, 0x18, 0xba, 0xa2, 0x38, 0xbe, 
    0xc9, 0x64, 0x2d, 0xf4, 0x81, 0xc2, 0xd1, 0x97, 0xbb, 0xcd, 
    0x04, 0x50, 0x20, 0xbb, 0x67, 0x20, 0xb4, 0x8a, 0x96, 0x30, 
    0x8f, 0x35, 0xa4, 0xb0, 0xc2, 0x8c, 0x4e, 0x9c, 0xc7, 0x2d, 
    0xbb, 0x90, 0x2d, 0x4a, 0x96, 0xbb, 0xb9, 0x71, 0x35, 0x37, 
    0xe7, 0xc8, 0x54, 0x1c, 0x91, 0x15, 0xb7, 0x46, 0x28, 0x3e, 
    0x90, 0x85, 0xa6, 0x09, 0xba, 0xd4, 0x5a, 0x51, 0x5d, 0x4a, 
    0xb6, 0xa0, 0xb1, 0x84, 0x12, 0x9d, 0x85, 0x6d, 0xa7, 0x07, 
    0x7d, 0x3b, 0x24, 0x44, 0x61, 0xb7, 0x78, 0x41, 0xba, 0x29, 
    0x8b, 0xc9, 0x67, 0x2e, 0x54, 0x72, 0x79, 0x11, 0x61, 0xe9, 
    0x31, 0x84, 0x21, 0x70, 0x1e, 0xcc, 0x5c, 0x03, 0x75, 0x19, 
    0xab, 0x3d, 0xea, 0x1d, 0x15, 0xae, 0xba, 0xe5, 0xa2, 0x0b, 
    0x73, 0xf4, 0xa3, 0x55, 0x3c, 0x81, 0x3c, 0x00, 0x30, 0xb0, 
    0x2e, 0xca, 0x8f, 0xd8, 0xd3, 0x71, 0x2a, 0x9e, 0x40, 0xaf, 
    0x0d, 0x20, 0xa1, 0x22, 0xf8, 0x7e, 0xa4, 0x8d, 0x5a, 0x7a, 
    0xfc, 0x23, 0x05, 0x4c, 0xa3, 0xc1, 0x16, 0x95, 0x5e, 0xa9, 
    0x6e, 0xbf, 0xf8, 0xaf, 0x5f, 0xe3, 0xb0, 0x22, 0x62, 0x39, 
    0x45, 0xc9, 0x47, 0x84, 0x0e, 0x53, 0x79, 0xa2, 0xa8, 0x20, 
    0x43, 0x65, 0x63, 0x4a, 0x6d, 0x10, 0x7c, 0x03, 0x5f, 0xd0, 
    0xbe, 0x6f, 0x5a, 0x91, 0x41, 0xef, 0x9e, 0x06, 0xc9, 0x43, 
    0x1b, 0xd9, 0x6f, 0xe5, 0x69, 0xac, 0xb2, 0xe4, 0x35, 0xea, 
    0x8a, 0x8b, 0xb1, 0x5c, 0x20, 0x53, 0x38, 0x40, 0x29, 0xc6, 
    0x0e, 0x64, 0xa3, 0xf7, 0xbf, 0x75, 0xad, 0x84, 0x6d, 0x9b, 
    0xdd, 0x17, 0x10, 0x3e, 0x85, 0x6a, 0xc2, 0xc2, 0xc1, 0x22, 
    0xb0, 0xf7, 0xae, 0x65, 0x43, 0x72, 0x4a, 0xbd, 0xeb, 0xe0, 
    0x4e, 0xf9, 0x88, 0xa7, 0x00, 0x02, 0x8d, 0xbc, 0x05, 0x2f, 
    0x6c, 0x8d, 0xa5, 0xb6, 0x02, 0x64, 0x32, 0x55, 0x1d, 0xde, 
    0x76, 0xc6, 0x54, 0x95, 0xf9, 0xe7, 0xa5, 0x71, 0x66, 0xc0, 
    0xe6, 0xab, 0xd7, 0xb7, 0x03, 0xa1, 0x38, 0xc4, 0x6f, 0x90, 
    0x0a, 0x87, 0x25, 0x39, 0x42, 0x8f, 0xc7, 0x6b, 0x62, 0x2e, 
    0x13, 0xde, 0x07, 0x1e, 0xa7, 0x00, 0xf0, 0x8d, 0xeb, 0xd6, 
    0xc2, 0x9e, 0x20, 0x58, 0xe7, 0x7f, 0xc6, 0x20, 0xd6, 0xb1, 
    0xfe, 0xf3, 0xee, 0x34, 0x9c, 0x14, 0x1e, 0xf7, 0xa4, 0x18, 
    0x2c, 0xdd, 0xfb, 0xde, 0x4a, 0x95, 0xf8, 0xb0, 0x73, 0x14, 
    0x09, 0x89, 0x75, 0x4c, 0xe8, 0xc8, 0x00, 0x73, 0xdc, 0x49, 
    0x90, 0x58, 0x15, 0x53, 0x22, 0xca, 0x16, 0xc5, 0x49, 0xd5, 
    0x2b, 0x98, 0x2f, 0x05, 0x2d, 0x8d, 0x6b, 0x0a, 0x0e, 0xac, 
    0xfb, 0x7d, 0x42, 0x12, 0x83, 0xe8, 0x8d, 0x72, 0xa3, 0xf2, 
    0xf7, 0x04, 0xc6, 0x87, 0x97, 0xa5, 0x82, 0x5b, 0x85, 0xea, 
    0x8f, 0xd3, 0x68, 0x74, 0x3e, 0xf7, 0x36, 0x0c, 0xa0, 0x83, 
    0x51, 0x68, 0xf9, 0xfb, 0xbe, 0x10, 0xde, 0xad, 0xec, 0x91, 
    0xea, 0x12, 0x2e, 0x4a, 0xf5, 0x35, 0x03, 0x50, 0x3b, 0x5f, 
    0x1e, 0xdf, 0xdc, 0x95, 0x68, 0xeb, 0x87, 0x8e, 0x24, 0xa4, 
    0x70, 0x13, 0x9e, 0x09, 0x50, 0xa5, 0x15, 0x78, 0x7f, 0x18, 
    0x06, 0x61, 0x49, 0x8a, 0xb4, 0x65, 0xca, 0x33, 0xe2, 0xa7, 
    0x57, 0x51, 0xa1, 0xcf, 0x58, 0x82, 0xa5, 0xa0, 0xab, 0xd1, 
    0x5f, 0xf5, 0x68, 0x2c, 0xad, 0x4e, 0xe5, 0xd1, 0x96, 0x4f, 
    0xe0, 0x51, 0x65, 0x0c, 0x44, 0xb8, 0xc6, 0x5b, 0xc8, 0x0e, 
    0xe5, 0x2a, 0x7e, 0x74, 0xd7, 0x45, 0x7b, 0xb5, 0x03, 0x4a, 
    0x77, 0x7f, 0x8e, 0xda, 0x26, 0x5c, 0xe3, 0x58, 0xbc, 0x36, 
    0xa5, 0x6e, 0xa3, 0x7e, 0x87, 0xb9, 0x80, 0xd6, 0x93, 0x5e, 
    0xf5, 0x24, 0xd4, 0x2d, 0xbc, 0x4d, 0xc8, 0xe7, 0xdc, 0x85, 
    0x44, 0x00, 0x4b, 0x8b, 0x2d, 0x05, 0x32, 0x97, 0x4c, 0x9c, 
    0xb9, 0xb4, 0x97, 0x97, 0x55, 0x60, 0x0b, 0x98, 0x21, 0x4f, 
    0xa2, 0x2e, 0x4d, 0xcc, 0x5b, 0x8d, 0xde, 0x25, 0xaa, 0x0a, 
    0xfc, 0xca, 0xd1, 0x54, 0x90, 0xbe, 0xef, 0xe6, 0x93, 0x49, 
    0xbb, 0x33, 0xaf, 0xf9, 0x5b, 0x98, 0xc4, 0xce, 0x3c, 0x22, 
    0xd0, 0xed, 0x5a, 0x9e, 0x01, 0xc0, 0x6a, 0x76, 0x2a, 0x74, 
    0x8f, 0x65, 0xdd, 0xec, 0x7b, 0xd8, 0xef, 0x0e, 0xc0, 0x0d, 
    0xdb, 0x47, 0x8b, 0x6a, 0x0d, 0xc5, 0xe5, 0x53, 0xb2, 0x22, 
    0x84, 0x71, 0xb2, 0xf6, 0x99, 0x42, 0x14, 0x43, 0x94, 0xad, 
    0x61, 0xbd, 0x00, 0xef, 0xf7, 0xfd, 0x20, 0xd7, 0x0c, 0x67, 
    0xf7, 0xca, 0xdf, 0x78, 0xb0, 0x28, 0x95, 0xb9, 0x0e, 0x4c, 
    0x3c, 0xbb, 0x2b, 0x85, 0xa3, 0x68, 0x78, 0x6f, 0x31, 0xe7, 
    0x5f, 0x7b, 0xa7, 0x5f, 0xe7, 0x17, 0x35, 0xdd, 0x20, 0x2c, 
    0x10, 0x3a, 0x98, 0xe3, 0xb8, 0x7a, 0x8e, 0x6f, 0xee, 0x34, 
    0x14, 0x75, 0x19, 0xf8
};



#endif  // __WEIGHT_H__
